{
  "version": "1.0",
  "truncation": null,
  "padding": null,
  "added_tokens": [
    {
      "id": 0,
      "content": "<PAD>",
      "single_word": false,
      "lstrip": false,
      "rstrip": false,
      "normalized": false,
      "special": true
    },
    {
      "id": 1,
      "content": "<UNK>",
      "single_word": false,
      "lstrip": false,
      "rstrip": false,
      "normalized": false,
      "special": true
    },
    {
      "id": 2,
      "content": "<BOS>",
      "single_word": false,
      "lstrip": false,
      "rstrip": false,
      "normalized": false,
      "special": true
    },
    {
      "id": 3,
      "content": "<EOS>",
      "single_word": false,
      "lstrip": false,
      "rstrip": false,
      "normalized": false,
      "special": true
    }
  ],
  "normalizer": null,
  "pre_tokenizer": {
    "type": "ByteLevel",
    "add_prefix_space": false,
    "trim_offsets": true,
    "use_regex": true
  },
  "post_processor": null,
  "decoder": {
    "type": "ByteLevel",
    "add_prefix_space": true,
    "trim_offsets": true,
    "use_regex": true
  },
  "model": {
    "type": "BPE",
    "dropout": null,
    "unk_token": null,
    "continuing_subword_prefix": null,
    "end_of_word_suffix": null,
    "fuse_unk": false,
    "byte_fallback": false,
    "ignore_merges": false,
    "vocab": {
      "<PAD>": 0,
      "<UNK>": 1,
      "<BOS>": 2,
      "<EOS>": 3,
      "!": 4,
      "\"": 5,
      "#": 6,
      "$": 7,
      "%": 8,
      "&": 9,
      "'": 10,
      "(": 11,
      ")": 12,
      "*": 13,
      "+": 14,
      ",": 15,
      "-": 16,
      ".": 17,
      "/": 18,
      "0": 19,
      "1": 20,
      "2": 21,
      "3": 22,
      "4": 23,
      "5": 24,
      "6": 25,
      "7": 26,
      "8": 27,
      "9": 28,
      ":": 29,
      ";": 30,
      "<": 31,
      "=": 32,
      ">": 33,
      "?": 34,
      "@": 35,
      "A": 36,
      "B": 37,
      "C": 38,
      "D": 39,
      "E": 40,
      "F": 41,
      "G": 42,
      "H": 43,
      "I": 44,
      "J": 45,
      "K": 46,
      "L": 47,
      "M": 48,
      "N": 49,
      "O": 50,
      "P": 51,
      "Q": 52,
      "R": 53,
      "S": 54,
      "T": 55,
      "U": 56,
      "V": 57,
      "W": 58,
      "X": 59,
      "Y": 60,
      "Z": 61,
      "[": 62,
      "\\": 63,
      "]": 64,
      "^": 65,
      "_": 66,
      "`": 67,
      "a": 68,
      "b": 69,
      "c": 70,
      "d": 71,
      "e": 72,
      "f": 73,
      "g": 74,
      "h": 75,
      "i": 76,
      "j": 77,
      "k": 78,
      "l": 79,
      "m": 80,
      "n": 81,
      "o": 82,
      "p": 83,
      "q": 84,
      "r": 85,
      "s": 86,
      "t": 87,
      "u": 88,
      "v": 89,
      "w": 90,
      "x": 91,
      "y": 92,
      "z": 93,
      "{": 94,
      "|": 95,
      "}": 96,
      "~": 97,
      "¡": 98,
      "¢": 99,
      "£": 100,
      "¤": 101,
      "¥": 102,
      "¦": 103,
      "§": 104,
      "¨": 105,
      "©": 106,
      "ª": 107,
      "«": 108,
      "¬": 109,
      "®": 110,
      "¯": 111,
      "°": 112,
      "±": 113,
      "²": 114,
      "³": 115,
      "´": 116,
      "µ": 117,
      "¶": 118,
      "·": 119,
      "¸": 120,
      "¹": 121,
      "º": 122,
      "»": 123,
      "¼": 124,
      "½": 125,
      "¾": 126,
      "¿": 127,
      "Â": 128,
      "Ã": 129,
      "Ä": 130,
      "Å": 131,
      "Ç": 132,
      "È": 133,
      "É": 134,
      "Ê": 135,
      "Ë": 136,
      "Ì": 137,
      "Í": 138,
      "Î": 139,
      "Ï": 140,
      "Ð": 141,
      "Ñ": 142,
      "à": 143,
      "â": 144,
      "ã": 145,
      "ä": 146,
      "å": 147,
      "æ": 148,
      "ç": 149,
      "è": 150,
      "é": 151,
      "ê": 152,
      "ë": 153,
      "ì": 154,
      "ï": 155,
      "ð": 156,
      "ĉ": 157,
      "Ċ": 158,
      "č": 159,
      "Ġ": 160,
      "Ģ": 161,
      "ģ": 162,
      "Ĥ": 163,
      "ĥ": 164,
      "Ħ": 165,
      "ħ": 166,
      "Ĩ": 167,
      "ĩ": 168,
      "Ī": 169,
      "ī": 170,
      "Ĭ": 171,
      "ĭ": 172,
      "Į": 173,
      "į": 174,
      "İ": 175,
      "ı": 176,
      "Ĳ": 177,
      "ĳ": 178,
      "Ĵ": 179,
      "ĵ": 180,
      "Ķ": 181,
      "ķ": 182,
      "ĸ": 183,
      "Ĺ": 184,
      "ĺ": 185,
      "Ļ": 186,
      "ļ": 187,
      "Ľ": 188,
      "ľ": 189,
      "Ŀ": 190,
      "ŀ": 191,
      "Ł": 192,
      "ł": 193,
      "Ń": 194,
      "Ġt": 195,
      "Ġa": 196,
      "in": 197,
      "he": 198,
      "re": 199,
      "Ġthe": 200,
      "on": 201,
      "čĊ": 202,
      "Ġs": 203,
      "er": 204,
      "at": 205,
      "Ġc": 206,
      "en": 207,
      "Ġo": 208,
      "nd": 209,
      "es": 210,
      "ing": 211,
      "it": 212,
      "Ġp": 213,
      "or": 214,
      "Ġand": 215,
      "is": 216,
      "Ġw": 217,
      "Ġf": 218,
      "an": 219,
      "al": 220,
      "Ġto": 221,
      "Ġb": 222,
      "Ġm": 223,
      "ou": 224,
      "Ġin": 225,
      "Ġof": 226,
      "le": 227,
      "ion": 228,
      "ar": 229,
      "Ġd": 230,
      "ic": 231,
      "ed": 232,
      "ro": 233,
      "ent": 234,
      "as": 235,
      "Ġe": 236,
      "ct": 237,
      "Ġre": 238,
      "om": 239,
      "us": 240,
      "ve": 241,
      "Ġh": 242,
      "Ġth": 243,
      "Ġl": 244,
      "ĠĠ": 245,
      "Ġis": 246,
      "et": 247,
      "ce": 248,
      "Ġn": 249,
      "im": 250,
      "il": 251,
      "Ġg": 252,
      "ation": 253,
      "ol": 254,
      "ch": 255,
      "ĠT": 256,
      "Ġfor": 257,
      "ut": 258,
      "st": 259,
      "ow": 260,
      "id": 261,
      "ra": 262,
      "ly": 263,
      "Ġst": 264,
      "Ġbe": 265,
      "Ġy": 266,
      "Ġpro": 267,
      "ig": 268,
      "ate": 269,
      "Ġthat": 270,
      "ers": 271,
      "ir": 272,
      "ith": 273,
      "ur": 274,
      "Ġor": 275,
      "Ġyou": 276,
      "ot": 277,
      "Ġon": 278,
      "Ġan": 279,
      "ul": 280,
      "if": 281,
      "el": 282,
      "Ġcan": 283,
      "Ġcon": 284,
      "ess": 285,
      "Ġit": 286,
      "Ġwith": 287,
      "Ġhe": 288,
      "ay": 289,
      "Ġas": 290,
      "iv": 291,
      "ĠA": 292,
      "am": 293,
      "ge": 294,
      "ver": 295,
      "Ġcom": 296,
      "ĠI": 297,
      "Ġsu": 298,
      "Ġus": 299,
      "ment": 300,
      "ak": 301,
      "Ġal": 302,
      "ive": 303,
      "Ġare": 304,
      "un": 305,
      "ab": 306,
      "Ġmo": 307,
      "ad": 308,
      "Ġv": 309,
      "se": 310,
      "Ġex": 311,
      "res": 312,
      "ĠS": 313,
      "pp": 314,
      "Ġde": 315,
      "ter": 316,
      "qu": 317,
      "ity": 318,
      "ĠThe": 319,
      "Ġen": 320,
      "Ġwh": 321,
      "ect": 322,
      "her": 323,
      "ld": 324,
      "ies": 325,
      "um": 326,
      "ist": 327,
      "ant": 328,
      "th": 329,
      "ĠC": 330,
      "Ġne": 331,
      "ain": 332,
      "ĠĠĠĠ": 333,
      "em": 334,
      "Ġle": 335,
      "Ġim": 336,
      "op": 337,
      "Ġch": 338,
      "ort": 339,
      "od": 340,
      "ri": 341,
      "est": 342,
      "ust": 343,
      "igh": 344,
      "ere": 345,
      "ure": 346,
      "Ġha": 347,
      "ial": 348,
      "du": 349,
      "Ġtheir": 350,
      "oc": 351,
      "ence": 352,
      "iz": 353,
      "Ġyour": 354,
      "Ġwor": 355,
      "ac": 356,
      "os": 357,
      "nt": 358,
      "Ġr": 359,
      "ions": 360,
      "Ġcomp": 361,
      "Ġimp": 362,
      "ould": 363,
      "low": 364,
      "Ġby": 365,
      "ine": 366,
      "age": 367,
      "ud": 368,
      "Ġse": 369,
      "ill": 370,
      "rom": 371,
      "Ġsp": 372,
      "act": 373,
      "ĠP": 374,
      "Ġsh": 375,
      "ide": 376,
      "Ġinc": 377,
      "'s": 378,
      "pt": 379,
      "Ġpl": 380,
      "ight": 381,
      "og": 382,
      "his": 383,
      "are": 384,
      "orm": 385,
      "Ġte": 386,
      "Ġint": 387,
      "pl": 388,
      "per": 389,
      "Ġ1": 390,
      "ake": 391,
      "ag": 392,
      "ff": 393,
      "Ġu": 394,
      "Ġad": 395,
      "cess": 396,
      "able": 397,
      "ical": 398,
      "end": 399,
      "ĠE": 400,
      "rou": 401,
      "art": 402,
      "Ġfrom": 403,
      "Ġk": 404,
      "all": 405,
      "Ġab": 406,
      "ĠM": 407,
      "ĠB": 408,
      "ĠH": 409,
      "The": 410,
      "Ġwe": 411,
      "and": 412,
      "ome": 413,
      "ĠThis": 414,
      "form": 415,
      "Ġdat": 416,
      "ach": 417,
      "out": 418,
      "Ġres": 419,
      "Ġ\"": 420,
      "Ġhave": 421,
      "ast": 422,
      "ther": 423,
      "Ġat": 424,
      "Ġcont": 425,
      "ĠW": 426,
      "ep": 427,
      "ore": 428,
      "ult": 429,
      "ĠF": 430,
      "Ġac": 431,
      "ces": 432,
      "Ġme": 433,
      "ance": 434,
      "our": 435,
      "ign": 436,
      "gh": 437,
      "Ġdata": 438,
      "ru": 439,
      "ĠR": 440,
      "Ġhel": 441,
      "Ġmore": 442,
      "vel": 443,
      "ations": 444,
      "Ġ(": 445,
      "Ġhelp": 446,
      "Ġapp": 447,
      "reat": 448,
      "ĠD": 449,
      "ind": 450,
      "Ġcl": 451,
      "ard": 452,
      "ang": 453,
      "ime": 454,
      "ans": 455,
      "ich": 456,
      "ie": 457,
      "Ġsuch": 458,
      "ase": 459,
      "ell": 460,
      "ous": 461,
      "ks": 462,
      "ite": 463,
      "ip": 464,
      "ĠčĊ": 465,
      "ice": 466,
      "Ġfe": 467,
      "Ġwas": 468,
      "ib": 469,
      "Ġwhe": 470,
      "Ġother": 471,
      "ual": 472,
      "Ġun": 473,
      "Ġthis": 474,
      "ass": 475,
      "red": 476,
      "ile": 477,
      "ific": 478,
      "**": 479,
      "ec": 480,
      "Ġprov": 481,
      "Ġar": 482,
      "ress": 483,
      "oo": 484,
      "ning": 485,
      "Ġup": 486,
      "Ġtra": 487,
      "so": 488,
      "Ġwhich": 489,
      "av": 490,
      "ction": 491,
      "Ġhas": 492,
      "ong": 493,
      "Ġdis": 494,
      "Ġ2": 495,
      "Ġman": 496,
      "Ġem": 497,
      "Ġits": 498,
      "ood": 499,
      "Ġfol": 500,
      "Ġnot": 501,
      "ĠO": 502,
      "ĠG": 503,
      "ace": 504,
      "Ġthey": 505,
      "one": 506,
      "--": 507,
      "ue": 508,
      "ĠĠĠ": 509,
      "Ġdes": 510,
      "iff": 511,
      "ition": 512,
      "ame": 513,
      "ated": 514,
      "Ġfollow": 515,
      "Ġsy": 516,
      "ary": 517,
      "ne": 518,
      "Ġqu": 519,
      "Ġj": 520,
      "ĠL": 521,
      "ustom": 522,
      "iven": 523,
      "Ġalso": 524,
      "ry": 525,
      "ke": 526,
      "Ġcomm": 527,
      "ents": 528,
      "ack": 529,
      "Ġsent": 530,
      "Ġeff": 531,
      "Ġtime": 532,
      "Ġdiff": 533,
      "ap": 534,
      "Ġnew": 535,
      "Ġout": 536,
      "ount": 537,
      "ener": 538,
      "Ġuse": 539,
      "lud": 540,
      "Ġsc": 541,
      "Ġso": 542,
      "Ġprodu": 543,
      "Ġthem": 544,
      "ĠIt": 545,
      "umb": 546,
      "Ġinclud": 547,
      "ĠU": 548,
      "Ġabout": 549,
      "Ġev": 550,
      "king": 551,
      "Ġcustom": 552,
      "etw": 553,
      "Ġind": 554,
      "stem": 555,
      "Ġinto": 556,
      "ĠIn": 557,
      "âĢ": 558,
      "Ġro": 559,
      "Ġlear": 560,
      "Ġ=": 561,
      "Ġper": 562,
      "Ġwill": 563,
      "xt": 564,
      "Ġtw": 565,
      "aking": 566,
      "ds": 567,
      "Ġmake": 568,
      "reate": 569,
      "rough": 570,
      "ĠN": 571,
      "ple": 572,
      "Ġall": 573,
      "ities": 574,
      "ments": 575,
      "ail": 576,
      "ful": 577,
      "Ġused": 578,
      "erv": 579,
      "ost": 580,
      "Ġpe": 581,
      "ark": 582,
      "chn": 583,
      "ility": 584,
      "les": 585,
      "Ġcould": 586,
      "Ġinter": 587,
      "ors": 588,
      "Ġone": 589,
      "Ġ-": 590,
      "ike": 591,
      "alth": 592,
      "Ġcol": 593,
      "Ġpr": 594,
      "Ġover": 595,
      "Ġway": 596,
      "ange": 597,
      "Ġredu": 598,
      "ory": 599,
      "Ġrec": 600,
      "ree": 601,
      "ms": 602,
      "Ġinform": 603,
      "ater": 604,
      "Ġtr": 605,
      "erson": 606,
      "Ġfollowing": 607,
      "Ġneed": 608,
      "Ġsentence": 609,
      "int": 610,
      "Ġsystem": 611,
      "Ġher": 612,
      "Ġtwo": 613,
      "ience": 614,
      "erg": 615,
      "ize": 616,
      "rib": 617,
      "oy": 618,
      "Ġdiffere": 619,
      "lic": 620,
      "Ġmod": 621,
      "Ġtechn": 622,
      "ased": 623,
      "ures": 624,
      "Ġnumb": 625,
      "Ġwould": 626,
      "Ġph": 627,
      "get": 628,
      "Ġbut": 629,
      "Ġusing": 630,
      "Ġgo": 631,
      "Ġpre": 632,
      "olog": 633,
      "own": 634,
      "led": 635,
      "In": 636,
      "Ġcons": 637,
      "ĠĠĠĠĠĠĠĠ": 638,
      "ear": 639,
      "ating": 640,
      "Ġwork": 641,
      "ob": 642,
      "ject": 643,
      "Ġinv": 644,
      "``": 645,
      "Ġimpro": 646,
      "ire": 647,
      "ons": 648,
      "ular": 649,
      "Ġany": 650,
      "yp": 651,
      "ia": 652,
      "ient": 653,
      "Ġthrough": 654,
      "Ġstr": 655,
      "Ġdec": 656,
      "Ġprocess": 657,
      "velop": 658,
      "Ġpos": 659,
      "Ġhealth": 660,
      "ari": 661,
      "row": 662,
      "ify": 663,
      "Ġdo": 664,
      "Ġimport": 665,
      "Ġgiven": 666,
      "lect": 667,
      "Ġacc": 668,
      "Ġinformation": 669,
      "als": 670,
      "Ġsome": 671,
      "ates": 672,
      "Ġlike": 673,
      "Ġact": 674,
      "ential": 675,
      "ens": 676,
      "Ġ3": 677,
      "Ġexper": 678,
      "ph": 679,
      "Ġproduct": 680,
      "Ġrel": 681,
      "Ġlist": 682,
      "Ġval": 683,
      "Ġam": 684,
      "een": 685,
      "ĠAI": 686,
      "ns": 687,
      "ings": 688,
      "mm": 689,
      "ys": 690,
      "Ġsm": 691,
      "ices": 692,
      "Ġspec": 693,
      "iness": 694,
      "Ġke": 695,
      "Ġpart": 696,
      "its": 697,
      "Ġmay": 698,
      "nder": 699,
      "Ġperson": 700,
      "ople": 701,
      "put": 702,
      "ild": 703,
      "etween": 704,
      "Ġadd": 705,
      "oth": 706,
      "ergy": 707,
      "Ġbetween": 708,
      "ally": 709,
      "ef": 710,
      "ative": 711,
      "ict": 712,
      "ics": 713,
      "ĠJ": 714,
      "Ġour": 715,
      "bs": 716,
      "ise": 717,
      "gor": 718,
      "ord": 719,
      "ft": 720,
      "Ġwho": 721,
      "Ġkn": 722,
      "Ġdevelop": 723,
      "very": 724,
      "ĠSt": 725,
      "Ġtrans": 726,
      "Ġserv": 727,
      "Ġexp": 728,
      "Ġpeople": 729,
      "Ġthere": 730,
      "ible": 731,
      "ound": 732,
      "ower": 733,
      "Ġincre": 734,
      "Ġmed": 735,
      "Ġmodel": 736,
      "Ġexam": 737,
      "Ġlearning": 738,
      "Ġenergy": 739,
      "Ġvari": 740,
      "Ġoff": 741,
      "Ġwhile": 742,
      "gan": 743,
      "pport": 744,
      "Ġtyp": 745,
      "ose": 746,
      "Ġbus": 747,
      "anc": 748,
      "Ġhis": 749,
      "Ġprovid": 750,
      "round": 751,
      "Ġset": 752,
      "enerate": 753,
      "con": 754,
      "Ġhow": 755,
      "ural": 756,
      "Ġrep": 757,
      "00": 758,
      "ract": 759,
      "Ġprog": 760,
      "Ġbl": 761,
      "aus": 762,
      "ution": 763,
      "ting": 764,
      "ten": 765,
      "Ġcar": 766,
      "Ġsoc": 767,
      "ife": 768,
      "Ġra": 769,
      "ruct": 770,
      "Ġeffect": 771,
      "âĢĻ": 772,
      "Ġimportant": 773,
      "Ġwhere": 774,
      "Ġass": 775,
      "Ġunder": 776,
      "tain": 777,
      "Ġpo": 778,
      "Ġworld": 779,
      "Ġ5": 780,
      "Ġprovide": 781,
      "angu": 782,
      "Ġresp": 783,
      "Ġwhen": 784,
      "Ġcreat": 785,
      "line": 786,
      "Ġeach": 787,
      "gg": 788,
      "Ġshe": 789,
      "Ġdet": 790,
      "Ġreg": 791,
      "ving": 792,
      "ick": 793,
      "Ġcustomer": 794,
      "ology": 795,
      "Ġsol": 796,
      "ily": 797,
      "Ġadv": 798,
      "Ġmost": 799,
      "ook": 800,
      "Ġbusiness": 801,
      "Ġart": 802,
      "Ġimprove": 803,
      "ivid": 804,
      "ub": 805,
      "arket": 806,
      "Ġcommun": 807,
      "Ġdifferent": 808,
      "ized": 809,
      "hes": 810,
      "Ġmet": 811,
      "Ġfun": 812,
      "ll": 813,
      "nce": 814,
      "Ġchar": 815,
      "ish": 816,
      "irst": 817,
      "Ġhad": 818,
      "Ġlangu": 819,
      "Ġsk": 820,
      "Ġnumber": 821,
      "erm": 822,
      "cy": 823,
      "any": 824,
      "Ġif": 825,
      "Ġco": 826,
      "uc": 827,
      "ature": 828,
      "ages": 829,
      "Ġcomput": 830,
      "rit": 831,
      "Ġday": 832,
      "Ġallow": 833,
      "arm": 834,
      "Ġform": 835,
      "Ġlead": 836,
      "Ġ|": 837,
      "Ġhum": 838,
      "ness": 839,
      "iron": 840,
      "Ġdesign": 841,
      "ues": 842,
      "Ġsign": 843,
      "Ġcomple": 844,
      "Ġshould": 845,
      "Ġresult": 846,
      "Ġsa": 847,
      "Ġmain": 848,
      "Ġrem": 849,
      "crib": 850,
      "Ġ`": 851,
      "Ġeng": 852,
      "Ġreduce": 853,
      "imate": 854,
      "Ġwell": 855,
      "ware": 856,
      "----": 857,
      "gorith": 858,
      "Ġpat": 859,
      "Ġanal": 860,
      "Ġplay": 861,
      "Ġhigh": 862,
      "ident": 863,
      "Ġbec": 864,
      "riend": 865,
      "Ġexample": 866,
      "ble": 867,
      "viron": 868,
      "Ġthese": 869,
      "Ġlar": 870,
      "Ġmarket": 871,
      "ove": 872,
      "Ġpol": 873,
      "Ġwater": 874,
      "rite": 875,
      "ves": 876,
      "Ġcreate": 877,
      "resent": 878,
      "Ġtext": 879,
      "Ġfind": 880,
      "iqu": 881,
      "stand": 882,
      "hat": 883,
      "Ġalgorith": 884,
      "Ġsim": 885,
      "arch": 886,
      "Ġbu": 887,
      "itive": 888,
      "Ġstud": 889,
      "Ġinst": 890,
      "ives": 891,
      "uring": 892,
      "ax": 893,
      "Ġprogra": 894,
      "urn": 895,
      "Ġcal": 896,
      "der": 897,
      "Ġatt": 898,
      "Ġmaking": 899,
      "vironment": 900,
      "Ġlanguage": 901,
      "Ġthan": 902,
      "Ġpot": 903,
      "way": 904,
      "ck": 905,
      "ren": 906,
      "Ġfl": 907,
      "elf": 908,
      "Ġtas": 909,
      "te": 910,
      "Ġeas": 911,
      "Ġgra": 912,
      "Ġvis": 913,
      "Ġmany": 914,
      "ividual": 915,
      "ality": 916,
      "Ġlife": 917,
      "ources": 918,
      "Ġhand": 919,
      "Ġclass": 920,
      "ĠY": 921,
      "Ġfin": 922,
      "Ġequ": 923,
      "Ġ**": 924,
      "Ġref": 925,
      "ious": 926,
      "hip": 927,
      "bject": 928,
      "Ġperform": 929,
      "Ġbr": 930,
      "ety": 931,
      "Ġindividual": 932,
      "Ġ4": 933,
      "iss": 934,
      "Ġret": 935,
      "Ġcle": 936,
      "Generate": 937,
      "Ġtechnology": 938,
      "Ġtake": 939,
      "dition": 940,
      "Ġrequ": 941,
      "Ġwhat": 942,
      "Ġenvironment": 943,
      "ric": 944,
      "wn": 945,
      "eng": 946,
      "Ġappro": 947,
      "ption": 948,
      "Ġimpact": 949,
      "Ġincluding": 950,
      "Ġaccess": 951,
      "Ġplan": 952,
      "ough": 953,
      "ien": 954,
      "Ġche": 955,
      "Ġfirst": 956,
      "Ġgrow": 957,
      "Ġstep": 958,
      "Ġuser": 959,
      "Ġpop": 960,
      "Ġexpl": 961,
      "Ġsocial": 962,
      "Ġag": 963,
      "ĠAd": 964,
      "Ġele": 965,
      "ade": 966,
      "ved": 967,
      "Ġorgan": 968,
      "Ġcharact": 969,
      "ines": 970,
      "Ġbeen": 971,
      "Ġunderstand": 972,
      "iew": 973,
      "Ġinclude": 974,
      "Ġconc": 975,
      "Ġgreat": 976,
      "ts": 977,
      "ward": 978,
      "eg": 979,
      "cing": 980,
      "Ġmin": 981,
      "Ġoften": 982,
      "Ġpower": 983,
      "ases": 984,
      "Ġloc": 985,
      "Ġdisc": 986,
      "ically": 987,
      "Ġ+": 988,
      "Ġinvol": 989,
      "hed": 990,
      "Ġlong": 991,
      "ĠV": 992,
      "achine": 993,
      "Ġfood": 994,
      "cribe": 995,
      "Ġevery": 996,
      "Ġdep": 997,
      "ĠHow": 998,
      "```": 999,
      "Ġbeing": 1000,
      "Ġens": 1001,
      "ited": 1002,
      "Ġpotential": 1003,
      "Ġsur": 1004,
      "Des": 1005,
      "ather": 1006,
      "ants": 1007,
      "Ġed": 1008,
      "ivity": 1009,
      "fore": 1010,
      "Ġwords": 1011,
      "ever": 1012,
      "Ġsignific": 1013,
      "Ġexperience": 1014,
      "Ġpur": 1015,
      "Ġboth": 1016,
      "Ġprom": 1017,
      "ork": 1018,
      "ĠThey": 1019,
      "ĠCh": 1020,
      "Ġwebs": 1021,
      "akes": 1022,
      "Ġsmall": 1023,
      "Ġfunction": 1024,
      "ization": 1025,
      "ĠEn": 1026,
      "Ġmy": 1027,
      "Ġno": 1028,
      "Ġposs": 1029,
      "ĠK": 1030,
      "Ġback": 1031,
      "Ġcommunic": 1032,
      "Ġcount": 1033,
      "ered": 1034,
      "Ġpersonal": 1035,
      "Ġfeel": 1036,
      "One": 1037,
      "Ġtop": 1038,
      "Ġgl": 1039,
      "Ġhuman": 1040,
      "Ġent": 1041,
      "Ġfam": 1042,
      "Ġdecis": 1043,
      "atures": 1044,
      "atural": 1045,
      "up": 1046,
      "Ġspe": 1047,
      "other": 1048,
      "Ġaut": 1049,
      "Ġchang": 1050,
      "ability": 1051,
      "Ġident": 1052,
      "Ġsumm": 1053,
      "Create": 1054,
      "ined": 1055,
      "Ġdi": 1056,
      "ling": 1057,
      "Ġspecific": 1058,
      "Ġcaus": 1059,
      "Ġsoft": 1060,
      "Ġwere": 1061,
      "redict": 1062,
      "ploy": 1063,
      "Ġchange": 1064,
      "Ġcor": 1065,
      "hing": 1066,
      "Ġsignificant": 1067,
      "ode": 1068,
      "Ġcost": 1069,
      "Ġproble": 1070,
      "ew": 1071,
      "ĠHe": 1072,
      "Ġpass": 1073,
      "Ġben": 1074,
      "Ġcompany": 1075,
      "Ġgood": 1076,
      "Ġcustomers": 1077,
      "Ġfriend": 1078,
      "Ġlight": 1079,
      "old": 1080,
      "Ġeffective": 1081,
      "ond": 1082,
      "Ġgener": 1083,
      "Ġcommon": 1084,
      ":**": 1085,
      "ining": 1086,
      "conom": 1087,
      "Ġlevel": 1088,
      "Ġla": 1089,
      "__": 1090,
      "ense": 1091,
      "Ġve": 1092,
      "Ġsupport": 1093,
      "Ġeven": 1094,
      "Ġdr": 1095,
      "Ġkey": 1096,
      "Ġlarge": 1097,
      "Ġstart": 1098,
      "iving": 1099,
      ".\"": 1100,
      "nect": 1101,
      "Ġthree": 1102,
      "'t": 1103,
      "Ġcur": 1104,
      "Ġeffic": 1105,
      "Ġav": 1106,
      "Ġprot": 1107,
      "cul": 1108,
      "Ġthen": 1109,
      "Ġinf": 1110,
      "ĠThese": 1111,
      "Ġdist": 1112,
      "ables": 1113,
      "Ġbre": 1114,
      "Ġstate": 1115,
      "cur": 1116,
      "port": 1117,
      "ries": 1118,
      "Ġrev": 1119,
      "Ġfi": 1120,
      "Ġess": 1121,
      "Ġide": 1122,
      "Ġbenef": 1123,
      "ivers": 1124,
      "ccess": 1125,
      "ĠĠĠĠĠĠĠ": 1126,
      "omm": 1127,
      "Ġown": 1128,
      "tern": 1129,
      "Ġ'": 1130,
      "reen": 1131,
      "Ġbased": 1132,
      "Ġtasks": 1133,
      "ock": 1134,
      "Ġnatural": 1135,
      "Ġsever": 1136,
      "Ġyear": 1137,
      "Ġris": 1138,
      "Ġwebsite": 1139,
      "Ġcomputer": 1140,
      "ber": 1141,
      "Ġmem": 1142,
      "Ġdown": 1143,
      "Ġcontent": 1144,
      "Ġbeh": 1145,
      "ending": 1146,
      "ced": 1147,
      "Ġknow": 1148,
      "Ġeconom": 1149,
      "etter": 1150,
      "Ġaround": 1151,
      "Ġins": 1152,
      "Ġdel": 1153,
      "Ġseveral": 1154,
      "Ġteam": 1155,
      "Ġfact": 1156,
      "ational": 1157,
      "Ġpoint": 1158,
      "Ġword": 1159,
      "Ġonline": 1160,
      "ze": 1161,
      "ĠAs": 1162,
      "Ġanim": 1163,
      "Ġsystems": 1164,
      "Ġvalue": 1165,
      "ĠAn": 1166,
      "Ġsee": 1167,
      "ills": 1168,
      "Ġmade": 1169,
      "Ġmat": 1170,
      "Ġkeep": 1171,
      "Ġdev": 1172,
      "ateg": 1173,
      "Ġright": 1174,
      "Ġend": 1175,
      "ital": 1176,
      "Ġopt": 1177,
      "Ġmachine": 1178,
      "Ġpartic": 1179,
      "Ġread": 1180,
      "ually": 1181,
      "Ġtem": 1182,
      "Ġpredict": 1183,
      "Ġmedia": 1184,
      "ote": 1185,
      "Ġair": 1186,
      "vent": 1187,
      "hen": 1188,
      "ĠUn": 1189,
      "Ġinput": 1190,
      "Ġlearn": 1191,
      "Ġmon": 1192,
      "Ġcontin": 1193,
      "Ġget": 1194,
      "Ġmeth": 1195,
      "ery": 1196,
      "Ġstory": 1197,
      "Ġanaly": 1198,
      "Ġrele": 1199,
      "chie": 1200,
      "ocus": 1201,
      "Ġ10": 1202,
      "ied": 1203,
      "ron": 1204,
      "Ġiss": 1205,
      "Ġtre": 1206,
      "Ġsuccess": 1207,
      "vert": 1208,
      "Ġop": 1209,
      "Ġprof": 1210,
      "ering": 1211,
      "Ġbetter": 1212,
      "ructure": 1213,
      "Ġelect": 1214,
      "Ġbra": 1215,
      "omp": 1216,
      "Ġincrease": 1217,
      "omet": 1218,
      "Ġorder": 1219,
      "ional": 1220,
      "ouse": 1221,
      "Ġhome": 1222,
      "ĠPro": 1223,
      "Ġsoftware": 1224,
      "Ġmanage": 1225,
      "Ġinteract": 1226,
      "Ġ20": 1227,
      "Ġknown": 1228,
      "Ġmethod": 1229,
      "ggest": 1230,
      "here": 1231,
      "ner": 1232,
      "Ġphys": 1233,
      "Ġfeatures": 1234,
      "Ġservice": 1235,
      "Ġobject": 1236,
      "Ġachie": 1237,
      "Ġnumbers": 1238,
      "Here": 1239,
      "ier": 1240,
      "ĠFor": 1241,
      "Ġdevelopment": 1242,
      "cept": 1243,
      "Ġmult": 1244,
      "Ġ6": 1245,
      "ream": 1246,
      "Ġtool": 1247,
      "Ġalgorithm": 1248,
      "fter": 1249,
      "Ġtype": 1250,
      "ets": 1251,
      "Ġcare": 1252,
      "Describe": 1253,
      "Ġensure": 1254,
      "Ġitem": 1255,
      "Ġconsid": 1256,
      "Ġdeterm": 1257,
      "Ġquest": 1258,
      "yth": 1259,
      "Ġfocus": 1260,
      "Ġconnect": 1261,
      "Ġchall": 1262,
      "ĠHowever": 1263,
      "Ġvarious": 1264,
      "ĠIf": 1265,
      "read": 1266,
      "aut": 1267,
      "Ġmean": 1268,
      "Ġext": 1269,
      "ink": 1270,
      "ins": 1271,
      "ody": 1272,
      "apt": 1273,
      "Ġapplic": 1274,
      "ination": 1275,
      "ĠCon": 1276,
      "Ġcharacter": 1277,
      "ways": 1278,
      "Ġusers": 1279,
      "Ġpossible": 1280,
      "Ġjust": 1281,
      "oss": 1282,
      "ian": 1283,
      "til": 1284,
      "Ġneeds": 1285,
      "Ġconf": 1286,
      "ov": 1287,
      "aging": 1288,
      "Ġdef": 1289,
      "Ġidentify": 1290,
      "ars": 1291,
      "Ġcode": 1292,
      "10": 1293,
      "ublic": 1294,
      "Ġsal": 1295,
      "Ġfore": 1296,
      "Ġstore": 1297,
      "ique": 1298,
      "Ġbuild": 1299,
      "Ġamount": 1300,
      "Ġrest": 1301,
      "uch": 1302,
      "roup": 1303,
      "rop": 1304,
      "Ġnetw": 1305,
      "Ġonly": 1306,
      "Ġlet": 1307,
      "ellig": 1308,
      "Ġtoget": 1309,
      "Ġtogether": 1310,
      "Write": 1311,
      "Ġbest": 1312,
      "Ġreal": 1313,
      "oura": 1314,
      "Ġjob": 1315,
      "Ġways": 1316,
      "uture": 1317,
      "As": 1318,
      "Ġeduc": 1319,
      "ertain": 1320,
      "els": 1321,
      "lus": 1322,
      "Ġemploy": 1323,
      "pr": 1324,
      "aste": 1325,
      "nces": 1326,
      "Ġcap": 1327,
      "Ġproducts": 1328,
      "Ġoper": 1329,
      "ĠAm": 1330,
      "Ġrespons": 1331,
      "Ġgu": 1332,
      "asing": 1333,
      "Ġothers": 1334,
      "rol": 1335,
      "ribut": 1336,
      "Ġaud": 1337,
      "icle": 1338,
      "Ġability": 1339,
      "Ġindividuals": 1340,
      "Ġprotect": 1341,
      "Ġcomplex": 1342,
      "Ġindust": 1343,
      "Ġproviding": 1344,
      "ogn": 1345,
      "Ġlo": 1346,
      "Ġenc": 1347,
      "ients": 1348,
      "Ġfil": 1349,
      "vern": 1350,
      "Ġpract": 1351,
      "verall": 1352,
      "air": 1353,
      "ĠHere": 1354,
      "Ġdem": 1355,
      "What": 1356,
      "Ġshare": 1357,
      "Ġassist": 1358,
      "Ġinvolves": 1359,
      "ray": 1360,
      "Ġreducing": 1361,
      "Ġstrateg": 1362,
      "Ex": 1363,
      "ython": 1364,
      "Ġplace": 1365,
      "Ġbefore": 1366,
      "Ġsteps": 1367,
      "Ġfuture": 1368,
      "Ġessential": 1369,
      "Ġrange": 1370,
      "Ġsw": 1371,
      "raph": 1372,
      "Ġresources": 1373,
      "Ġ8": 1374,
      "less": 1375,
      "Ġgroup": 1376,
      "Ġfound": 1377,
      "joy": 1378,
      "Ġmeas": 1379,
      "ism": 1380,
      "ired": 1381,
      "ven": 1382,
      "Ġbenefits": 1383,
      "Ġstrong": 1384,
      "Ġpositive": 1385,
      "ats": 1386,
      "ee": 1387,
      "Ġwarm": 1388,
      "Ġtemper": 1389,
      "erest": 1390,
      "rent": 1391,
      "Ġable": 1392,
      "Ġshow": 1393,
      "Ġrepresent": 1394,
      "ilities": 1395,
      "Ġfamily": 1396,
      "Ġtest": 1397,
      "Ġ19": 1398,
      "ted": 1399,
      "pportun": 1400,
      "Ġbusinesses": 1401,
      "ĠYou": 1402,
      "Ġsun": 1403,
      "Ġrelations": 1404,
      "Ġland": 1405,
      "ior": 1406,
      "cri": 1407,
      "yc": 1408,
      "Ġcent": 1409,
      "Ġperformance": 1410,
      "ression": 1411,
      "Ġchanges": 1412,
      "Ġcommunication": 1413,
      "ĠBy": 1414,
      "Ġ0": 1415,
      "Ġintern": 1416,
      "Ġwithout": 1417,
      "Ġhist": 1418,
      "dit": 1419,
      "pect": 1420,
      "Ġservices": 1421,
      "obal": 1422,
      "Ġsit": 1423,
      "Ġalways": 1424,
      "Ġmust": 1425,
      "ffect": 1426,
      "Ġrese": 1427,
      "new": 1428,
      "Ġproblem": 1429,
      "Ġbehav": 1430,
      "Ġmeans": 1431,
      "rodu": 1432,
      "ains": 1433,
      "arth": 1434,
      "pping": 1435,
      "Ġser": 1436,
      "bot": 1437,
      "ss": 1438,
      "ĠWith": 1439,
      "Ġopportun": 1440,
      "izing": 1441,
      "Ġinvest": 1442,
      "Ġgrowth": 1443,
      "ulation": 1444,
      "care": 1445,
      "Ġwrit": 1446,
      "Ġwithin": 1447,
      "wards": 1448,
      "Ġuntil": 1449,
      "elligence": 1450,
      "Ġrelationship": 1451,
      "day": 1452,
      "Ġfriends": 1453,
      "Ġactiv": 1454,
      "Ġmus": 1455,
      "Ġfu": 1456,
      "Ġsummary": 1457,
      "Ġphysical": 1458,
      "Ġclear": 1459,
      "Ġinterest": 1460,
      "Ġ[": 1461,
      "ibility": 1462,
      "Ġcho": 1463,
      "Ġbel": 1464,
      "Ġlay": 1465,
      "Ġfiel": 1466,
      "Ġhapp": 1467,
      "Ġhelps": 1468,
      "ĠâĢ": 1469,
      "\".": 1470,
      "ffic": 1471,
      "Ġpresent": 1472,
      "Ġ<": 1473,
      "Ġemail": 1474,
      "Ġ$": 1475,
      "Ġtri": 1476,
      "Ġskills": 1477,
      "Ġdig": 1478,
      "Ġmarketing": 1479,
      "Ġpublic": 1480,
      "Ġchalleng": 1481,
      "Ġproject": 1482,
      "irt": 1483,
      "ĠShe": 1484,
      "Given": 1485,
      "Ġsure": 1486,
      "ause": 1487,
      "Ġsaf": 1488,
      "imes": 1489,
      "ides": 1490,
      "Ġful": 1491,
      "Ġcam": 1492,
      "olution": 1493,
      "Ġpar": 1494,
      "Ġreturn": 1495,
      "com": 1496,
      "Ġsearch": 1497,
      "ix": 1498,
      "Ġclimate": 1499,
      "Ġsomet": 1500,
      "Ġtransport": 1501,
      "bon": 1502,
      "ool": 1503,
      "ights": 1504,
      "Ġcalcul": 1505,
      "ences": 1506,
      "Ġ7": 1507,
      "Ġcontrol": 1508,
      "ancial": 1509,
      "Ġstudents": 1510,
      "Ġpopular": 1511,
      "ave": 1512,
      "Ġgame": 1513,
      "Name": 1514,
      "Ġcurrent": 1515,
      "arget": 1516,
      "anced": 1517,
      "Ġcomb": 1518,
      "ĠEx": 1519,
      "Ġoverall": 1520,
      "ank": 1521,
      "Ġconsum": 1522,
      "Ġgreen": 1523,
      "Ġquick": 1524,
      "Ġgoals": 1525,
      "Ġx": 1526,
      ").": 1527,
      "ead": 1528,
      "vant": 1529,
      "hor": 1530,
      "me": 1531,
      "Ġfive": 1532,
      "Ġelements": 1533,
      "vers": 1534,
      "Ġsame": 1535,
      "aterial": 1536,
      "Ġstand": 1537,
      "rect": 1538,
      "ental": 1539,
      "Ġname": 1540,
      "oose": 1541,
      "oh": 1542,
      "This": 1543,
      "Ġgovern": 1544,
      "Ġallows": 1545,
      "Ġchild": 1546,
      "Ġarticle": 1547,
      "Ġlog": 1548,
      "Ġsub": 1549,
      "ty": 1550,
      "Ġclean": 1551,
      "Ġless": 1552,
      "Ġitems": 1553,
      "Ġefficient": 1554,
      "An": 1555,
      "Ġwide": 1556,
      "ditionally": 1557,
      "Ġvalues": 1558,
      "erc": 1559,
      "Ġrun": 1560,
      "icult": 1561,
      "Ġregular": 1562,
      "Expl": 1563,
      "--------": 1564,
      "ustain": 1565,
      "Ġlove": 1566,
      "lement": 1567,
      "Ġaudience": 1568,
      "Ġalgorithms": 1569,
      "Ġduring": 1570,
      "Ġcolor": 1571,
      "Ġheart": 1572,
      "Ġunique": 1573,
      "Ġmeaning": 1574,
      "ysis": 1575,
      "Ġcreating": 1576,
      "Ġsources": 1577,
      "Ġconst": 1578,
      "Ġbo": 1579,
      "):": 1580,
      "abor": 1581,
      "Ġglobal": 1582,
      "Ġcity": 1583,
      "Ġstructure": 1584,
      "Ġmaterial": 1585,
      "pro": 1586,
      "Ġtarget": 1587,
      "Ġmove": 1588,
      "ificial": 1589,
      "Ġopen": 1590,
      "atform": 1591,
      "Ġbody": 1592,
      "Ġeasy": 1593,
      "Ġarea": 1594,
      "Ġprovides": 1595,
      "Ġstatement": 1596,
      "Ġgr": 1597,
      "ĠAl": 1598,
      "Ġmaintain": 1599,
      "ex": 1600,
      "ĠUse": 1601,
      "Ġyears": 1602,
      "Ġactivities": 1603,
      "Ġdra": 1604,
      "Overall": 1605,
      "tle": 1606,
      "Ġenjoy": 1607,
      "Ġhard": 1608,
      "oid": 1609,
      "Ġdifficult": 1610,
      "ath": 1611,
      "Ġfac": 1612,
      "Ġline": 1613,
      "Ġprogram": 1614,
      "Ġfinancial": 1615,
      "aj": 1616,
      "Ġresearch": 1617,
      "ĠTh": 1618,
      "Ġagain": 1619,
      "to": 1620,
      "Ġcult": 1621,
      "dent": 1622,
      "Ġhealthy": 1623,
      "Ġrole": 1624,
      "Ġter": 1625,
      "ĠĠĠĠĠĠĠĠĠĠĠĠĠĠĠĠ": 1626,
      "Ġexperien": 1627,
      "ived": 1628,
      "iple": 1629,
      "Ġfeed": 1630,
      "Explain": 1631,
      "back": 1632,
      "Ġaddition": 1633,
      "Ġaddress": 1634,
      "ories": 1635,
      "19": 1636,
      "Ġer": 1637,
      "Ġmeet": 1638,
      "Ġplatform": 1639,
      "Ġbeaut": 1640,
      "ĠRe": 1641,
      "Ġrisk": 1642,
      "iety": 1643,
      "Ġ#": 1644,
      "ĠIm": 1645,
      "ĠPl": 1646,
      "Ġhim": 1647,
      "ape": 1648,
      "Ġprevent": 1649,
      "dentify": 1650,
      "ooking": 1651,
      "Ġmess": 1652,
      "urate": 1653,
      "Ġstress": 1654,
      "self": 1655,
      "ross": 1656,
      "ger": 1657,
      "Ġpain": 1658,
      "Ġdecisions": 1659,
      "Ġneg": 1660,
      "Ġaccurate": 1661,
      "ource": 1662,
      "Ġlevels": 1663,
      "Ġsuggest": 1664,
      "oney": 1665,
      "ples": 1666,
      "Ġbreak": 1667,
      "Ġcarbon": 1668,
      "Ġbi": 1669,
      "ists": 1670,
      "Ġrecogn": 1671,
      "Ġbehavior": 1672,
      "rast": 1673,
      "Ġwal": 1674,
      "Ġeducation": 1675,
      "),": 1676,
      "Ġweb": 1677,
      "Ġproper": 1678,
      "Ġunderstanding": 1679,
      "terns": 1680,
      "atch": 1681,
      "fact": 1682,
      "Ġstay": 1683,
      "Ġdire": 1684,
      "Ġphr": 1685,
      "orts": 1686,
      "Ġemot": 1687,
      "face": 1688,
      "cessary": 1689,
      "Ġpoll": 1690,
      "Ġleading": 1691,
      "ĠUnited": 1692,
      "Ġanimals": 1693,
      "Ġallowing": 1694,
      "Ġcr": 1695,
      "Ġwant": 1696,
      "ale": 1697,
      "Ġsimple": 1698,
      "Con": 1699,
      "Ġcome": 1700,
      "Ġevent": 1701,
      "ention": 1702,
      "Ġavail": 1703,
      "Ġsl": 1704,
      "yle": 1705,
      "Ġnum": 1706,
      "Ġsat": 1707,
      "aring": 1708,
      "Ġrequire": 1709,
      "ert": 1710,
      "Ġpatterns": 1711,
      "Ġareas": 1712,
      "Ġintelligence": 1713,
      "Ġdecision": 1714,
      "Ġsecur": 1715,
      "Ġaction": 1716,
      "Ġflow": 1717,
      "Ġhig": 1718,
      "Ġwhy": 1719,
      "Ġhead": 1720,
      "Ġbas": 1721,
      "Ġimplement": 1722,
      "Ġhealthcare": 1723,
      "Ġpres": 1724,
      "Ġreach": 1725,
      "ext": 1726,
      "osp": 1727,
      "iques": 1728,
      "Ġthough": 1729,
      "Ġaccount": 1730,
      "alu": 1731,
      "Ġconcept": 1732,
      "Ġspace": 1733,
      "Ġfew": 1734,
      "ĠAdditionally": 1735,
      "Ġmot": 1736,
      "Ġsomething": 1737,
      "ances": 1738,
      "Ġanother": 1739,
      "eric": 1740,
      "Ġquality": 1741,
      "Ġmov": 1742,
      "Ġsustain": 1743,
      "Ġtravel": 1744,
      "ĠWe": 1745,
      "lusion": 1746,
      "Ġdeep": 1747,
      "lu": 1748,
      "Ġminut": 1749,
      "Ġsecurity": 1750,
      "ci": 1751,
      "oring": 1752,
      "uss": 1753,
      "issions": 1754,
      "Ġbecome": 1755,
      "ring": 1756,
      "Ġ9": 1757,
      "Ġautom": 1758,
      "Ġanalysis": 1759,
      "agn": 1760,
      "play": 1761,
      "Ġself": 1762,
      "Ġtaking": 1763,
      "Ġprogramm": 1764,
      "Ġgenerate": 1765,
      "Ġevents": 1766,
      "verage": 1767,
      "ĠOnce": 1768,
      "ditional": 1769,
      "Ġthose": 1770,
      "Ġpie": 1771,
      "Ġmaj": 1772,
      "Ġwind": 1773,
      "Ġtechniques": 1774,
      "Ġprofess": 1775,
      "Ġdoes": 1776,
      "mat": 1777,
      "Ġachieve": 1778,
      "Ġtru": 1779,
      "iting": 1780,
      "iency": 1781,
      "Ġshort": 1782,
      "Ġsitu": 1783,
      "thing": 1784,
      "imately": 1785,
      "Ġtemperature": 1786,
      "Ġwaste": 1787,
      "iment": 1788,
      "Ġtraining": 1789,
      "oun": 1790,
      "Ġoffer": 1791,
      "ĠSp": 1792,
      "Ġtransportation": 1793,
      "Ġtowards": 1794,
      "Ġcorrect": 1795,
      "Ġparticular": 1796,
      "Ġlim": 1797,
      "'m": 1798,
      "ĠThere": 1799,
      "ince": 1800,
      "Ġinteg": 1801,
      "Ġnetwork": 1802,
      "ledge": 1803,
      "lish": 1804,
      "Ġeconomic": 1805,
      "ash": 1806,
      "Ġmight": 1807,
      "Ġsound": 1808,
      "Ġengage": 1809,
      "oot": 1810,
      "esp": 1811,
      "Ġworking": 1812,
      "aves": 1813,
      "ording": 1814,
      "Ġsense": 1815,
      "Ġear": 1816,
      "Ġmanagement": 1817,
      "Ġmind": 1818,
      "Ġdon": 1819,
      "Ġtools": 1820,
      "Ġpurch": 1821,
      "20": 1822,
      "Ġlit": 1823,
      "ourage": 1824,
      "Ġoc": 1825,
      "ĠEarth": 1826,
      "Ġfre": 1827,
      "Ġpa": 1828,
      "Ġmuch": 1829,
      "riate": 1830,
      "Ġnext": 1831,
      "Ġbook": 1832,
      "ĠWh": 1833,
      "aster": 1834,
      "Ġest": 1835,
      "Ġresults": 1836,
      "oon": 1837,
      "ral": 1838,
      "Ġfree": 1839,
      "Ġtry": 1840,
      "Ġtoo": 1841,
      "ĠDe": 1842,
      "Ġvisual": 1843,
      "Ġpromot": 1844,
      "Ġcountries": 1845,
      "Ġimm": 1846,
      "Ġnever": 1847,
      "ours": 1848,
      "ument": 1849,
      "Ġpref": 1850,
      "Ġi": 1851,
      "ern": 1852,
      "Ġfactors": 1853,
      "anies": 1854,
      "Ġcontribut": 1855,
      "ees": 1856,
      "verb": 1857,
      "Ġcomplete": 1858,
      "ditions": 1859,
      "ope": 1860,
      "Ġnight": 1861,
      "ared": 1862,
      "Ġarray": 1863,
      "Ġpoints": 1864,
      "Ġincreasing": 1865,
      "ney": 1866,
      "Ġafter": 1867,
      "irtual": 1868,
      "Ġprint": 1869,
      "Ġfeedback": 1870,
      "Ġbecause": 1871,
      "Ġreas": 1872,
      "Ġveget": 1873,
      "ĠInd": 1874,
      "Ġdevices": 1875,
      "Ġnecessary": 1876,
      "ĠSome": 1877,
      "por": 1878,
      "Ġnature": 1879,
      "redients": 1880,
      "ration": 1881,
      "for": 1882,
      "Ġhistory": 1883,
      "Ġjour": 1884,
      "leep": 1885,
      "Ġpast": 1886,
      "Ġmajor": 1887,
      "ah": 1888,
      "az": 1889,
      "ĠAmeric": 1890,
      "Ġuses": 1891,
      "ength": 1892,
      "Ġnegative": 1893,
      "Ġside": 1894,
      "ency": 1895,
      "Ġlow": 1896,
      "Ġtypically": 1897,
      "Ġissues": 1898,
      "Ġchallenges": 1899,
      "Ġdue": 1900,
      "ification": 1901,
      "Ġdise": 1902,
      "Ġoptim": 1903,
      "labor": 1904,
      "Ġpost": 1905,
      "lex": 1906,
      "chool": 1907,
      "**:": 1908,
      "Ġdifference": 1909,
      "ently": 1910,
      "Ġemissions": 1911,
      "oud": 1912,
      "Ġexc": 1913,
      "Ġmethods": 1914,
      "Ġsec": 1915,
      "ified": 1916,
      "ards": 1917,
      "ĠStates": 1918,
      "Ġtable": 1919,
      "Ġapprop": 1920,
      "over": 1921,
      "ones": 1922,
      "ilar": 1923,
      "Ġforest": 1924,
      "ĠEm": 1925,
      "ommend": 1926,
      "Ġminutes": 1927,
      "ret": 1928,
      "Ġbal": 1929,
      "ura": 1930,
      "Ġengine": 1931,
      "resh": 1932,
      "Ġscient": 1933,
      "ohn": 1934,
      "Ġphrase": 1935,
      "be": 1936,
      "ategor": 1937,
      "Ġfra": 1938,
      "Ġgovernment": 1939,
      "Ġcharacters": 1940,
      "Ġview": 1941,
      "Ġappropriate": 1942,
      "Ġfield": 1943,
      "tal": 1944,
      "Ġsatis": 1945,
      "ox": 1946,
      "Ġpopulation": 1947,
      "Ġcertain": 1948,
      "There": 1949,
      "Ġsuccessful": 1950,
      "urther": 1951,
      "Ġoutput": 1952,
      "Ġknowledge": 1953,
      "To": 1954,
      "ames": 1955,
      "Ġsecon": 1956,
      "Ġinternet": 1957,
      "fort": 1958,
      "ords": 1959,
      "Ġnut": 1960,
      "Ġeffectively": 1961,
      "Ġ*": 1962,
      "ĠAr": 1963,
      "ĠOne": 1964,
      "Ġdigital": 1965,
      "Ġboo": 1966,
      "Ġaffect": 1967,
      "Ġupd": 1968,
      "Ġdesigned": 1969,
      "Ġmultiple": 1970,
      "pose": 1971,
      "Ġcell": 1972,
      "ium": 1973,
      "Ġincludes": 1974,
      "ata": 1975,
      "Ġtreat": 1976,
      "Ġcup": 1977,
      "Ġapproach": 1978,
      "ograph": 1979,
      "Ġtypes": 1980,
      "Ġideas": 1981,
      "pped": 1982,
      "Ġpay": 1983,
      "Ġbelie": 1984,
      "lass": 1985,
      "print": 1986,
      "Identify": 1987,
      "Ġheat": 1988,
      "Ġmoney": 1989,
      "Ġopportunities": 1990,
      "ires": 1991,
      "Ġequation": 1992,
      "Ġconsider": 1993,
      "Ġsing": 1994,
      "Ġmodels": 1995,
      "Ġcamp": 1996,
      "Ġsym": 1997,
      "istic": 1998,
      "Comp": 1999,
      "Ġlives": 2000,
      "Ġsho": 2001,
      "Ġindustry": 2002,
      "Ġavailable": 2003,
      "Ġapplications": 2004,
      "Ġquickly": 2005,
      "let": 2006,
      "Ġmil": 2007,
      "Ġgen": 2008,
      "Ġnews": 2009,
      "Ġbrand": 2010,
      "Ġconditions": 2011,
      "Ġweather": 2012,
      "Ġtraditional": 2013,
      "Ġbir": 2014,
      "Ġarg": 2015,
      "Ġanalyze": 2016,
      "Ġrelevant": 2017,
      "Ġenh": 2018,
      "Ġlast": 2019,
      "iver": 2020,
      "ĠGo": 2021,
      "ĠTo": 2022,
      "Ġtrack": 2023,
      "come": 2024,
      "pos": 2025,
      "ug": 2026,
      "Ġsomeone": 2027,
      "Ġtakes": 2028,
      "Ġactivity": 2029,
      "Ġmakes": 2030,
      "Ġey": 2031,
      "reng": 2032,
      "Ġtask": 2033,
      "Ġharm": 2034,
      "Ġel": 2035,
      "ane": 2036,
      "Ġrecommend": 2037,
      "Ġtimes": 2038,
      "Ġprocessing": 2039,
      "Ġeasier": 2040,
      "Find": 2041,
      "Ġcrit": 2042,
      "Ġarr": 2043,
      "Ġquestions": 2044,
      "by": 2045,
      "Ġpowerful": 2046,
      "place": 2047,
      "nov": 2048,
      "Ġrece": 2049,
      "fect": 2050,
      "Ġcase": 2051,
      "ĠEng": 2052,
      "Ġdescri": 2053,
      "Ġdifferences": 2054,
      "Ġinflu": 2055,
      "Ġvariety": 2056,
      "lease": 2057,
      "mosp": 2058,
      "ng": 2059,
      "Ġsqu": 2060,
      "Ġleg": 2061,
      "Ġdetermine": 2062,
      "Ġbeg": 2063,
      "Ġoptions": 2064,
      "St": 2065,
      "Ġstring": 2066,
      "Ġchildren": 2067,
      "sc": 2068,
      "Ġlook": 2069,
      "Ġnow": 2070,
      "oci": 2071,
      "avor": 2072,
      "Ġpers": 2073,
      "Ġsubject": 2074,
      "Ġupon": 2075,
      "Ġcompet": 2076,
      "Ġspecies": 2077,
      "word": 2078,
      "It": 2079,
      "Ġcompanies": 2080,
      "Ġturn": 2081,
      "ished": 2082,
      "Ġfru": 2083,
      "Ġissue": 2084,
      "utions": 2085,
      "Ġing": 2086,
      "ĠWhen": 2087,
      "par": 2088,
      "Ġphot": 2089,
      "Ġamong": 2090,
      "Ġlocal": 2091,
      "Ġcountry": 2092,
      "\",": 2093,
      "view": 2094,
      "Ġcause": 2095,
      "Ġexerc": 2096,
      "____": 2097,
      "Ġthings": 2098,
      "ĠSh": 2099,
      "Ġterms": 2100,
      "eet": 2101,
      "aly": 2102,
      "Ġnon": 2103,
      "Ġbring": 2104,
      "de": 2105,
      "Ġspeed": 2106,
      "Ġartificial": 2107,
      "Ġpollution": 2108,
      "Ġec": 2109,
      "Ġmaterials": 2110,
      "based": 2111,
      "Ġaverage": 2112,
      "Ġimages": 2113,
      "Ġspread": 2114,
      "Ġmedical": 2115,
      "Ġefficiency": 2116,
      "ising": 2117,
      "time": 2118,
      "lection": 2119,
      "Ġhab": 2120,
      "Ġprim": 2121,
      "Ġdirect": 2122,
      "How": 2123,
      "Ġlaw": 2124,
      "Ġatmosp": 2125,
      "aving": 2126,
      "newable": 2127,
      "Ġincreased": 2128,
      "aur": 2129,
      "ĠWhat": 2130,
      "Ġpolic": 2131,
      "Ġelement": 2132,
      "Ġerr": 2133,
      "Ġexperiences": 2134,
      "Ġmovie": 2135,
      "Ġconclusion": 2136,
      "Ġelectric": 2137,
      "Ġtopic": 2138,
      "Ġtree": 2139,
      "Ġ12": 2140,
      "Ġeffects": 2141,
      "duct": 2142,
      "Ġimportance": 2143,
      "ĠOn": 2144,
      "Ġidea": 2145,
      "bers": 2146,
      "br": 2147,
      "erous": 2148,
      "Ġlower": 2149,
      "Ġcolors": 2150,
      "Ġminim": 2151,
      "Ġlocation": 2152,
      "ĠPython": 2153,
      "Ġdepend": 2154,
      "Ġbro": 2155,
      "Ġcontain": 2156,
      "ĠBe": 2157,
      "ator": 2158,
      "Ġliving": 2159,
      "Ġtotal": 2160,
      "Ġmom": 2161,
      "Ġsmart": 2162,
      "Ġprogress": 2163,
      "Ġemployees": 2164,
      "Ġstill": 2165,
      "Ġtechnolog": 2166,
      "Ġstreng": 2167,
      "Ġloss": 2168,
      "oice": 2169,
      "Ġstudy": 2170,
      "Ġlive": 2171,
      "Ġproblems": 2172,
      "Ġhy": 2173,
      "Ġreview": 2174,
      "Ġpress": 2175,
      "itle": 2176,
      "Ġmob": 2177,
      "Ġgoal": 2178,
      "Ġadvant": 2179,
      "Rew": 2180,
      "Ġadapt": 2181,
      "Ġold": 2182,
      "Ġrate": 2183,
      "Ġsolution": 2184,
      "Ġprice": 2185,
      "ĠMake": 2186,
      "Ġcosts": 2187,
      "Ġjourney": 2188,
      "</": 2189,
      "ystem": 2190,
      "avig": 2191,
      "ging": 2192,
      "Ġexpress": 2193,
      "Ġsky": 2194,
      "lying": 2195,
      "Ġprovided": 2196,
      "Ġsize": 2197,
      "Ġschool": 2198,
      "Ġsustainable": 2199,
      "just": 2200,
      "Ġsn": 2201,
      "oms": 2202,
      "Ġdisplay": 2203,
      "Ġmental": 2204,
      "Ġplants": 2205,
      "Ġcollect": 2206,
      "eep": 2207,
      "ĠCan": 2208,
      "nds": 2209,
      "Ġgas": 2210,
      "Ġsupp": 2211,
      "light": 2212,
      "ĠApp": 2213,
      "Ġcompon": 2214,
      "Ġprin": 2215,
      "Ġadvent": 2216,
      "Ġcreative": 2217,
      "ĠSc": 2218,
      "Ġrelationships": 2219,
      "Ġagainst": 2220,
      "Ġdemand": 2221,
      "Ġplant": 2222,
      "Pro": 2223,
      "ush": 2224,
      "ĠUs": 2225,
      "Ġsource": 2226,
      "Ġsum": 2227,
      "ech": 2228,
      "itor": 2229,
      "aces": 2230,
      "io": 2231,
      "Ġsleep": 2232,
      "Ġface": 2233,
      "Ġworks": 2234,
      "Ġcalled": 2235,
      "struct": 2236,
      "umm": 2237,
      "Ġhigher": 2238,
      "Ġsecond": 2239,
      "Ġyoung": 2240,
      "Ġpaper": 2241,
      "Th": 2242,
      "app": 2243,
      "Ġrobot": 2244,
      "ony": 2245,
      "Ġassoci": 2246,
      "house": 2247,
      "Ġexpect": 2248,
      "ĠInc": 2249,
      "Ġavoid": 2250,
      "Ġusually": 2251,
      "Ġob": 2252,
      "Ġlif": 2253,
      "Ġdiscuss": 2254,
      "000": 2255,
      "Ġcheck": 2256,
      "Ġexce": 2257,
      "istics": 2258,
      "Ġexplore": 2259,
      "omes": 2260,
      "Ġpage": 2261,
      "Ġdivers": 2262,
      "emic": 2263,
      "gest": 2264,
      "ugh": 2265,
      "atic": 2266,
      "ication": 2267,
      "Ġlength": 2268,
      "ips": 2269,
      "Ġatmosphere": 2270,
      "Ġsociety": 2271,
      "vide": 2272,
      "idence": 2273,
      "Ġvirtual": 2274,
      "Ġquestion": 2275,
      "idd": 2276,
      "ĠInt": 2277,
      "Ġrout": 2278,
      "Ġmiss": 2279,
      "Ġdetect": 2280,
      "Ġmar": 2281,
      "Ġgive": 2282,
      "Ġvide": 2283,
      "Ġperfect": 2284,
      "ision": 2285,
      "Ġlikely": 2286,
      "Ġinnov": 2287,
      "acy": 2288,
      "Ġsimilar": 2289,
      "Ġrefers": 2290,
      "'re": 2291,
      "pare": 2292,
      "Ġaway": 2293,
      "ott": 2294,
      "âĢĿ": 2295,
      ",\"": 2296,
      "Su": 2297,
      "Ġ/": 2298,
      "etic": 2299,
      "ibr": 2300,
      "Ġimproving": 2301,
      "orld": 2302,
      "Ġcontinu": 2303,
      "Ġprogramming": 2304,
      "Ġhouse": 2305,
      "Ġingredients": 2306,
      "ik": 2307,
      "Ġbrow": 2308,
      "erences": 2309,
      "Ġimage": 2310,
      "Ġspecial": 2311,
      "Ġdone": 2312,
      "Ġcommunity": 2313,
      "iod": 2314,
      "inal": 2315,
      "Ġfull": 2316,
      "Ġrenewable": 2317,
      "astic": 2318,
      "Ġfour": 2319,
      "Ġevalu": 2320,
      "use": 2321,
      "land": 2322,
      "ember": 2323,
      "ĠUS": 2324,
      "Ġeasily": 2325,
      "Ġtax": 2326,
      "alls": 2327,
      "Ġappear": 2328,
      "Ġoccur": 2329,
      "ĠĠĠĠĠ": 2330,
      "cial": 2331,
      "Ġsens": 2332,
      "Ġvalu": 2333,
      "Ġsave": 2334,
      "sw": 2335,
      "Ġcru": 2336,
      "Ġdoc": 2337,
      "Rewrite": 2338,
      "itation": 2339,
      "amed": 2340,
      "Ġrecip": 2341,
      "Ġpoem": 2342,
      "Ġdiet": 2343,
      "Ġdatab": 2344,
      "ĠGP": 2345,
      "Ġbuilding": 2346,
      "irc": 2347,
      "Ġcomfort": 2348,
      "Ġcollabor": 2349,
      "Ġmeasures": 2350,
      "ither": 2351,
      "Ġneeded": 2352,
      "Ġeconomy": 2353,
      "ĠâĢľ": 2354,
      "Ġprocesses": 2355,
      "Ġrespect": 2356,
      "rior": 2357,
      "Ġhaving": 2358,
      "elling": 2359,
      "Ġfurther": 2360,
      "Ġtrue": 2361,
      "'ll": 2362,
      "ĠCol": 2363,
      "Ġdatas": 2364,
      "Ġproduce": 2365,
      "icious": 2366,
      "Ġnavig": 2367,
      "Ġalong": 2368,
      "Ġwriting": 2369,
      "Ġprofessional": 2370,
      "ĠAt": 2371,
      "ters": 2372,
      "Ġsmo": 2373,
      "Ġtrees": 2374,
      "Ġphone": 2375,
      "Ġmobile": 2376,
      "Ġactive": 2377,
      "Ġ{": 2378,
      "Ġcook": 2379,
      "ĠCl": 2380,
      "Ġdetail": 2381,
      "Ġoil": 2382,
      "Ġintrodu": 2383,
      "Ġapplication": 2384,
      "Ġsituation": 2385,
      "icles": 2386,
      "Ġdest": 2387,
      "Ġmonth": 2388,
      "List": 2389,
      "Ġexpens": 2390,
      "Ġrelated": 2391,
      "aily": 2392,
      "Ġconsist": 2393,
      "Once": 2394,
      "vey": 2395,
      "Ġvol": 2396,
      "sequ": 2397,
      "Ġsales": 2398,
      "orks": 2399,
      "Ġoffers": 2400,
      "Ġstrategies": 2401,
      "uracy": 2402,
      "ĠNew": 2403,
      "Ġacross": 2404,
      "Ġsche": 2405,
      "erve": 2406,
      "Ġbat": 2407,
      "Ġpromote": 2408,
      "Ġspeech": 2409,
      "orage": 2410,
      "angle": 2411,
      "epend": 2412,
      "Ġprograms": 2413,
      "Ġcour": 2414,
      "osing": 2415,
      "Ġstrategy": 2416,
      "Ġmessage": 2417,
      "Ġfit": 2418,
      "He": 2419,
      "oint": 2420,
      "Ġexplain": 2421,
      "Ġfresh": 2422,
      "ese": 2423,
      "Ġrestaur": 2424,
      "arize": 2425,
      "uce": 2426,
      "Ġegg": 2427,
      "Ġorig": 2428,
      "rans": 2429,
      "Ġfoot": 2430,
      "Ġconvers": 2431,
      "izations": 2432,
      "Ġcommunicate": 2433,
      "Ġsentences": 2434,
      "onse": 2435,
      "ulate": 2436,
      "iet": 2437,
      "Ġengaging": 2438,
      "Ġport": 2439,
      "Ġvary": 2440,
      "Ġadjust": 2441,
      "ps": 2442,
      "aches": 2443,
      "Ġpurpose": 2444,
      "Ġconsidered": 2445,
      "Ġhere": 2446,
      "Ġveh": 2447,
      "Ġsor": 2448,
      "Ġfeeling": 2449,
      "ised": 2450,
      "Ġscience": 2451,
      "Ġactions": 2452,
      "Ġsetting": 2453,
      "aign": 2454,
      "ute": 2455,
      "Ġdaily": 2456,
      "Ġdepending": 2457,
      "Ġmembers": 2458,
      "Ġgre": 2459,
      "Ġpractices": 2460,
      "gen": 2461,
      "Ġvoice": 2462,
      "Ġmusic": 2463,
      "urns": 2464,
      "Ġanimal": 2465,
      "ges": 2466,
      "Ġshopping": 2467,
      "Ġfeature": 2468,
      "ĠRed": 2469,
      "Ġstrength": 2470,
      "friend": 2471,
      "inally": 2472,
      "aling": 2473,
      "Ġvill": 2474,
      "Ġchat": 2475,
      "Ġcontext": 2476,
      "Ġdescribe": 2477,
      "Ġtoday": 2478,
      "Ġplanet": 2479,
      "orn": 2480,
      "Ġpriv": 2481,
      "Ġassociated": 2482,
      "Ġdeg": 2483,
      "dd": 2484,
      "Ġpack": 2485,
      "Ġhours": 2486,
      "Ġansw": 2487,
      "Ġsolve": 2488,
      "Ġcrucial": 2489,
      "Ġvery": 2490,
      "ĠAnd": 2491,
      "acks": 2492,
      "Ġperiod": 2493,
      "pper": 2494,
      "Ġpeace": 2495,
      "Ġpersonalized": 2496,
      "Ġscen": 2497,
      "Ġaccording": 2498,
      "side": 2499,
      "Ġleft": 2500,
      "Ġindic": 2501,
      "Ġrain": 2502,
      "Ġmeasure": 2503,
      "Ġrecyc": 2504,
      "Ġkind": 2505,
      "Ġwalk": 2506,
      "cc": 2507,
      "ĠTake": 2508,
      "Ġaccuracy": 2509,
      "ores": 2510,
      "Ġcirc": 2511,
      "iful": 2512,
      "Ġinit": 2513,
      "Ġmill": 2514,
      "Ġtal": 2515,
      "Ġsingle": 2516,
      "Ġhumans": 2517,
      "not": 2518,
      "Ġred": 2519,
      "cean": 2520,
      "izes": 2521,
      "Ġcontrast": 2522,
      "Ġbud": 2523,
      "Ġant": 2524,
      "Ġwee": 2525,
      "ĠAdd": 2526,
      "Ġconcer": 2527,
      "12": 2528,
      "Ġfrequ": 2529,
      "Ġsort": 2530,
      "Ġattract": 2531,
      "Ġsafety": 2532,
      "Ġcapt": 2533,
      "irus": 2534,
      "dom": 2535,
      "Ġdark": 2536,
      "Ġremain": 2537,
      "Ġcampaign": 2538,
      "Ġcard": 2539,
      "Ġequal": 2540,
      "oes": 2541,
      "Ġeither": 2542,
      "Ġground": 2543,
      "Ġtraffic": 2544,
      "ulations": 2545,
      "iate": 2546,
      "inking": 2547,
      "Ġdecre": 2548,
      "Ġmax": 2549,
      "unch": 2550,
      "Ġcomes": 2551,
      "Ġdid": 2552,
      "Ġrise": 2553,
      "Ġproduction": 2554,
      "Ġposition": 2555,
      "Ġmotiv": 2556,
      "of": 2557,
      "arr": 2558,
      "cking": 2559,
      "ĠTe": 2560,
      "Ġgreenhouse": 2561,
      "Ġeveryone": 2562,
      "Ġbreat": 2563,
      "Ġhot": 2564,
      "Ġsequ": 2565,
      "ĠJohn": 2566,
      "Ġslow": 2567,
      "Ġproductivity": 2568,
      "Ġblue": 2569,
      "iled": 2570,
      "Ġresponse": 2571,
      "Ġdevice": 2572,
      "Ġverb": 2573,
      "Ġselect": 2574,
      "Suggest": 2575,
      "Ġwhether": 2576,
      "Ġdays": 2577,
      "friendly": 2578,
      "Ġterm": 2579,
      "Ġnamed": 2580,
      "Ġgreater": 2581,
      "str": 2582,
      "Ġpatient": 2583,
      "Ġexercise": 2584,
      "Ġwild": 2585,
      "Ġstock": 2586,
      "aw": 2587,
      "python": 2588,
      "ĠSe": 2589,
      "Ġcontinue": 2590,
      "ming": 2591,
      "Ġpolit": 2592,
      "Ġbegin": 2593,
      "orpor": 2594,
      "Ġadvanced": 2595,
      "Ġstorage": 2596,
      "Ġorganization": 2597,
      "Ġbeauty": 2598,
      "aken": 2599,
      "Ġstra": 2600,
      "Ġdescrib": 2601,
      "Ġvegetables": 2602,
      "the": 2603,
      "Ġsect": 2604,
      "Ġmor": 2605,
      "ird": 2606,
      "Ġrequires": 2607,
      "ĠBut": 2608,
      "Ġreli": 2609,
      "Ġvariable": 2610,
      "Ġpredictions": 2611,
      "Ġ18": 2612,
      "Ġlooking": 2613,
      "Ġvers": 2614,
      "Ġeverything": 2615,
      "oor": 2616,
      "ton": 2617,
      "Ġstyle": 2618,
      "Ġcategor": 2619,
      "Ġdream": 2620,
      "Ġstat": 2621,
      "Ġyourself": 2622,
      "ula": 2623,
      "ender": 2624,
      "Ġtechnologies": 2625,
      "bo": 2626,
      "Ġban": 2627,
      "Ġgraph": 2628,
      "af": 2629,
      "Ġhope": 2630,
      "Ġbright": 2631,
      "Ġbudget": 2632,
      "Ġadditional": 2633,
      "Ġconstant": 2634,
      "Ġroom": 2635,
      "Ġattention": 2636,
      "Ġrecognition": 2637,
      "Ġparticularly": 2638,
      "ival": 2639,
      "Ġsides": 2640,
      "Ġplatforms": 2641,
      "Ġage": 2642,
      "gar": 2643,
      "Ġpan": 2644,
      "Ġill": 2645,
      "Ġchoose": 2646,
      "olving": 2647,
      "Ġenvironmental": 2648,
      "Ġsignificantly": 2649,
      "Ġbar": 2650,
      "Ġmoment": 2651,
      "Ġcool": 2652,
      "Class": 2653,
      "Ġfar": 2654,
      "ĠInst": 2655,
      "li": 2656,
      "ening": 2657,
      "hesis": 2658,
      "Ġnumerous": 2659,
      "Ġz": 2660,
      "Ġenough": 2661,
      "ĠCont": 2662,
      "ĠSet": 2663,
      "Ġstudent": 2664,
      "Ġcloud": 2665,
      "Ġassistant": 2666,
      "Ġsolar": 2667,
      "Ġpow": 2668,
      "Ġsecure": 2669,
      "Ġdescription": 2670,
      "Ġprimary": 2671,
      "For": 2672,
      "Ġ15": 2673,
      "ĠWhile": 2674,
      "head": 2675,
      "ĠPre": 2676,
      "ĠReg": 2677,
      "We": 2678,
      "lo": 2679,
      "ĠQ": 2680,
      "Ġinstruct": 2681,
      "ider": 2682,
      "ht": 2683,
      "Ġseem": 2684,
      "oyal": 2685,
      "Ġgoing": 2686,
      "ĠĠĠĠĠĠĠĠĠĠĠ": 2687,
      "Ġconcerns": 2688,
      "Ġdog": 2689,
      "Ġsatisfact": 2690,
      "Ġcred": 2691,
      "Ġvisit": 2692,
      "Ġobjects": 2693,
      "ĠComp": 2694,
      "Ġdeveloping": 2695,
      "Ġresponsible": 2696,
      "hy": 2697,
      "itud": 2698,
      "Ġrad": 2699,
      "Ġbig": 2700,
      "ury": 2701,
      "Ġlayer": 2702,
      "',": 2703,
      "Ġflex": 2704,
      "ots": 2705,
      "Ġbalance": 2706,
      "dr": 2707,
      "Ġmel": 2708,
      "ĠData": 2709,
      "Ġsolutions": 2710,
      "Ġmix": 2711,
      "Ġdeliv": 2712,
      "Ġsafe": 2713,
      "Ġpreferences": 2714,
      "Ġreasons": 2715,
      "und": 2716,
      "enc": 2717,
      "Ġquant": 2718,
      "15": 2719,
      "like": 2720,
      "pre": 2721,
      "Ġexist": 2722,
      "Ġbasic": 2723,
      "being": 2724,
      "Ġeth": 2725,
      "ĠFr": 2726,
      "Ġbeautiful": 2727,
      "ram": 2728,
      "Ġbuy": 2729,
      "val": 2730,
      "nam": 2731,
      "Ġconsequ": 2732,
      "Ġcat": 2733,
      "ules": 2734,
      "ĠOr": 2735,
      "Ġhelping": 2736,
      "Summ": 2737,
      "Ġcommonly": 2738,
      "Ġut": 2739,
      "quality": 2740,
      "Ġauthor": 2741,
      "Ġenhance": 2742,
      "Ġabs": 2743,
      "ĠAmerican": 2744,
      "iction": 2745,
      "Ġtransform": 2746,
      "11": 2747,
      "Ġlived": 2748,
      "ĠKeep": 2749,
      "Ġking": 2750,
      "Ġadvance": 2751,
      "Ġspeak": 2752,
      "Ġdatabase": 2753,
      "Ġwa": 2754,
      "Ġlittle": 2755,
      "ĠGPT": 2756,
      "Ġculture": 2757,
      "Ġprior": 2758,
      "ann": 2759,
      "Ġfund": 2760,
      "ground": 2761,
      "Ġever": 2762,
      "Give": 2763,
      "Ġanalyz": 2764,
      "Ġchoice": 2765,
      "Ġmount": 2766,
      "aries": 2767,
      "Ġappl": 2768,
      "Ġdesired": 2769,
      "Ġprec": 2770,
      "ift": 2771,
      "Ġneural": 2772,
      "Ġshape": 2773,
      "Ġexpression": 2774,
      "Ġvaluable": 2775,
      "itable": 2776,
      "Ġmag": 2777,
      "Ġdate": 2778,
      "Ġtrends": 2779,
      "ially": 2780,
      "Ġmass": 2781,
      "ended": 2782,
      "ĠLear": 2783,
      "Ġamounts": 2784,
      "life": 2785,
      "ites": 2786,
      "Ch": 2787,
      "Ġparticip": 2788,
      "Ġonce": 2789,
      "aged": 2790,
      "actions": 2791,
      "comes": 2792,
      "ĠRes": 2793,
      "Ġwon": 2794,
      "osed": 2795,
      "eration": 2796,
      "Ġwhite": 2797,
      "Ġleast": 2798,
      "Ġfinal": 2799,
      "Ġcomponents": 2800,
      "Ġsuper": 2801,
      "Ġled": 2802,
      "Ġtrained": 2803,
      "Ġbutter": 2804,
      "ĠStart": 2805,
      "Ġcars": 2806,
      "Ġbooks": 2807,
      "Ġput": 2808,
      "=\"": 2809,
      "cent": 2810,
      "Ġabove": 2811,
      "Ġfollows": 2812,
      "rees": 2813,
      "abilities": 2814,
      "Ġcourse": 2815,
      "Ġcomputing": 2816,
      "uments": 2817,
      "ĠWorld": 2818,
      "Ġrelax": 2819,
      "Ġsav": 2820,
      "Ġwritten": 2821,
      "ilt": 2822,
      "ĠSoc": 2823,
      "ĠSo": 2824,
      "Ġtrust": 2825,
      "Ġpurchase": 2826,
      "Provide": 2827,
      "Ġdataset": 2828,
      "Ġgather": 2829,
      "Ġdrive": 2830,
      "Ġobs": 2831,
      "Ġsurface": 2832,
      "Design": 2833,
      "Ġdam": 2834,
      "Ġwarming": 2835,
      "ches": 2836,
      "Ġexamples": 2837,
      "Ġbase": 2838,
      "Ġforms": 2839,
      "ĠMany": 2840,
      "isc": 2841,
      "Ġsquare": 2842,
      "Classify": 2843,
      "Ġsatisfaction": 2844,
      "Ġask": 2845,
      "Ġsorry": 2846,
      "Ġloyal": 2847,
      "une": 2848,
      "agraph": 2849,
      "Ġroad": 2850,
      "outh": 2851,
      "Ġlarger": 2852,
      "Ġrecipe": 2853,
      "With": 2854,
      "hel": 2855,
      "Ġoutcomes": 2856,
      "Ġchem": 2857,
      "ĠCons": 2858,
      "bol": 2859,
      "ele": 2860,
      "amm": 2861,
      "dule": 2862,
      "Ġbegan": 2863,
      "Ġmodern": 2864,
      "ancing": 2865,
      "Ġcausing": 2866,
      "Ġadventure": 2867,
      "Ġcall": 2868,
      "inary": 2869,
      "Ġnote": 2870,
      "Ġhighly": 2871,
      "ume": 2872,
      "ĠMon": 2873,
      "Ġopportunity": 2874,
      "ava": 2875,
      "fully": 2876,
      "Ġblock": 2877,
      "Ġcomputers": 2878,
      "Ġinvolve": 2879,
      "Ġplayer": 2880,
      "Ġoperations": 2881,
      "Ġcre": 2882,
      "ĠCreate": 2883,
      "Ġreflect": 2884,
      "Ġchanging": 2885,
      "Ġgroups": 2886,
      "ĠTra": 2887,
      "Ġpractice": 2888,
      "Ġpath": 2889,
      "ruction": 2890,
      "Ġdiv": 2891,
      "Ġopin": 2892,
      "Ġsea": 2893,
      "Ġconsequences": 2894,
      "words": 2895,
      "Ġsurround": 2896,
      "Ġgeneral": 2897,
      "Ġweight": 2898,
      "Ġpressure": 2899,
      "ina": 2900,
      "Ġdistance": 2901,
      "Ġrestaurant": 2902,
      "Ġice": 2903,
      "Ġtables": 2904,
      "Ġcyc": 2905,
      "Ġdeb": 2906,
      "Ġcontains": 2907,
      "Ġquery": 2908,
      "Ġsmooth": 2909,
      "ason": 2910,
      "Ġestab": 2911,
      "Ġwhole": 2912,
      "Ġsmaller": 2913,
      "Ġfilled": 2914,
      "Ġdivid": 2915,
      "oming": 2916,
      "resents": 2917,
      "term": 2918,
      "ĠPr": 2919,
      "illed": 2920,
      "Ġloop": 2921,
      "urning": 2922,
      "Ġfamous": 2923,
      "fficient": 2924,
      "Ġsentiment": 2925,
      "Ġtriangle": 2926,
      "Ġparagraph": 2927,
      "Ġhabit": 2928,
      "def": 2929,
      "zz": 2930,
      "Ġsong": 2931,
      "ored": 2932,
      "Ġrepresents": 2933,
      "Ġorganizations": 2934,
      "Ġcalculate": 2935,
      "Ġaware": 2936,
      "osystem": 2937,
      "Ġseen": 2938,
      "ises": 2939,
      "Ġwar": 2940,
      "Ġfast": 2941,
      "Ġstream": 2942,
      "Ġleaves": 2943,
      "Ġimproved": 2944,
      "Ġemotions": 2945,
      "ĠSm": 2946,
      "Ġblog": 2947,
      "Ġinstructions": 2948,
      "Ġinsights": 2949,
      "hemat": 2950,
      "ogle": 2951,
      "Ġnetworks": 2952,
      "Ġdraw": 2953,
      "Ġwom": 2954,
      "Ġplastic": 2955,
      "Ġsequence": 2956,
      "pe": 2957,
      "Ġstru": 2958,
      "ĠAfter": 2959,
      "Ġadvert": 2960,
      "Ġcontact": 2961,
      "Ġreport": 2962,
      "Ġresulting": 2963,
      "Ġmemory": 2964,
      "ustomer": 2965,
      "inks": 2966,
      "Ġthroughout": 2967,
      "Ġforce": 2968,
      "Summarize": 2969,
      "acher": 2970,
      "ĠMan": 2971,
      "ĠDevelop": 2972,
      "Ġrights": 2973,
      "ched": 2974,
      "Ġaspect": 2975,
      "Ġcaused": 2976,
      "ius": 2977,
      "Ġsince": 2978,
      "lear": 2979,
      "Ġbelow": 2980,
      "Ġnovel": 2981,
      "Ġeyes": 2982,
      "Â°": 2983,
      "Ġvalid": 2984,
      "Ġcreated": 2985,
      "Ġfruits": 2986,
      "Ġchatbot": 2987,
      "erse": 2988,
      "Ġmanner": 2989,
      "Ġindustries": 2990,
      "On": 2991,
      "Ġdelicious": 2992,
      "Ġpainting": 2993,
      "erce": 2994,
      "Ġfaster": 2995,
      "ronic": 2996,
      "Ġult": 2997,
      "atives": 2998,
      "Ġecosystem": 2999,
      "cer": 3000,
      "Ġcannot": 3001,
      "Ġinsp": 3002,
      "Ġvac": 3003,
      "Ġincome": 3004,
      "Ġrequired": 3005,
      "Ġcritical": 3006,
      "Ġfall": 3007,
      "Ġgain": 3008,
      "Ġgramm": 3009,
      "Ġprices": 3010,
      "Ġformula": 3011,
      "Ġregularly": 3012,
      "21": 3013,
      "Ġthought": 3014,
      "Ġdiseases": 3015,
      "Ġemerg": 3016,
      "Ġensuring": 3017,
      "Construct": 3018,
      "ĠLearning": 3019,
      "Ġlonger": 3020,
      "Ġconsumption": 3021,
      "ctions": 3022,
      "ĠPh": 3023,
      "Ġtaken": 3024,
      "Ġfavor": 3025,
      "Ġtitle": 3026,
      "ership": 3027,
      "Ġtesting": 3028,
      "Ġrespond": 3029,
      "Ġletter": 3030,
      "itude": 3031,
      "Ġlab": 3032,
      "ĠSu": 3033,
      "arent": 3034,
      "Ġ100": 3035,
      "Ġarch": 3036,
      "Ġdetails": 3037,
      "Ġsay": 3038,
      "Ġpand": 3039,
      "Ġlat": 3040,
      "Ġclose": 3041,
      "Ġdish": 3042,
      "ĠEnc": 3043,
      "Ġrevolution": 3044,
      "AI": 3045,
      "Ġconven": 3046,
      "Ġrap": 3047,
      "Ġhold": 3048,
      "Ph": 3049,
      "su": 3050,
      "Ġopp": 3051,
      "Ġknew": 3052,
      "Ġmatter": 3053,
      "Ġconflic": 3054,
      "`.": 3055,
      "Ġwin": 3056,
      "eterm": 3057,
      "elves": 3058,
      "Ġjoy": 3059,
      "ervation": 3060,
      "Ġapprox": 3061,
      "iversity": 3062,
      "Ġhyp": 3063,
      "Ġfinding": 3064,
      "Ġweek": 3065,
      "Ġthink": 3066,
      "Ġsugar": 3067,
      "Ġblack": 3068,
      "ager": 3069,
      "Ġjo": 3070,
      "Ġur": 3071,
      "ĠChe": 3072,
      "Ġfig": 3073,
      "Ġsymbol": 3074,
      "()": 3075,
      "Ġaim": 3076,
      "Ġocean": 3077,
      "illing": 3078,
      "ged": 3079,
      "elt": 3080,
      "Ġvast": 3081,
      "Ġnear": 3082,
      "Ġcheese": 3083,
      "Ġearly": 3084,
      "Ġpromoting": 3085,
      "itch": 3086,
      "Ġgard": 3087,
      "selves": 3088,
      "irl": 3089,
      "ĠEu": 3090,
      "ĠBl": 3091,
      "Ġindepend": 3092,
      "Ġdisease": 3093,
      "Ġheav": 3094,
      "50": 3095,
      "Ġlanguages": 3096,
      "Ġcut": 3097,
      "Ġfarm": 3098,
      "Ġdiagn": 3099,
      "Ġengagement": 3100,
      "So": 3101,
      "kn": 3102,
      "Ġforward": 3103,
      "Ġinformed": 3104,
      "gra": 3105,
      "Ġstates": 3106,
      "ken": 3107,
      "Ġtail": 3108,
      "Ġpiece": 3109,
      "Ġste": 3110,
      "Ġinterface": 3111,
      "itect": 3112,
      "ĠIs": 3113,
      "Ġinstance": 3114,
      "Ġcontribute": 3115,
      "Ġadvantages": 3116,
      "Ġinstead": 3117,
      "alse": 3118,
      "Ġinvestment": 3119,
      "ĠGoogle": 3120,
      "ocol": 3121,
      "aching": 3122,
      "And": 3123,
      "Ġmathemat": 3124,
      "Ġmaxim": 3125,
      "ung": 3126,
      "earch": 3127,
      "Ġcharacteristics": 3128,
      "ided": 3129,
      "Ġprev": 3130,
      "Person": 3131,
      "Ġentire": 3132,
      "14": 3133,
      "Ġcities": 3134,
      "ndom": 3135,
      "rel": 3136,
      "Ġcenter": 3137,
      "ĠImpro": 3138,
      "Ġthr": 3139,
      "iveness": 3140,
      "Ġassign": 3141,
      "ĠâĢĵ": 3142,
      "Ġpolitical": 3143,
      "amet": 3144,
      "Ġunc": 3145,
      "Ġefforts": 3146,
      "Ġplaying": 3147,
      "rupt": 3148,
      "Ġimpacts": 3149,
      "Ġeggs": 3150,
      "Ġadding": 3151,
      "Ġremote": 3152,
      "Ġbehind": 3153,
      "Ġrunning": 3154,
      "Ġmaintaining": 3155,
      "Ġfields": 3156,
      "Ġwidely": 3157,
      "Ġexec": 3158,
      "Ġoption": 3159,
      "ossil": 3160,
      "icro": 3161,
      "Re": 3162,
      "Ġvehicles": 3163,
      "Ġaltern": 3164,
      "Ġemb": 3165,
      "Ġaccurately": 3166,
      "Ġap": 3167,
      "alcul": 3168,
      "Ġformat": 3169,
      "Ġbackground": 3170,
      "hood": 3171,
      "ests": 3172,
      "lies": 3173,
      "Ġfair": 3174,
      "Ġball": 3175,
      "Ġencoura": 3176,
      "Ġdocument": 3177,
      "Ġshap": 3178,
      "Ġfix": 3179,
      "Ġeffort": 3180,
      "Ġfeelings": 3181,
      "Ġpolicy": 3182,
      "ump": 3183,
      "ricult": 3184,
      "ids": 3185,
      "Ġvariables": 3186,
      "18": 3187,
      "Ġcy": 3188,
      "ample": 3189,
      "Ġlogo": 3190,
      "Ġfire": 3191,
      "ened": 3192,
      "enge": 3193,
      "Ġbott": 3194,
      "Ġcolum": 3195,
      "ront": 3196,
      "Ġcombination": 3197,
      "Ġargument": 3198,
      "Ġge": 3199,
      "ĠCom": 3200,
      "action": 3201,
      "ĠRec": 3202,
      "ĠChoose": 3203,
      "iring": 3204,
      "ĠMachine": 3205,
      "abet": 3206,
      "ops": 3207,
      "Ġpieces": 3208,
      "Ġimag": 3209,
      "Ġmach": 3210,
      "ding": 3211,
      "Ġplease": 3212,
      "Ġconduct": 3213,
      "Ġmoon": 3214,
      "rie": 3215,
      "oxide": 3216,
      "het": 3217,
      "Ġtouch": 3218,
      "Ġincorpor": 3219,
      "ĠEnglish": 3220,
      "Ġpandemic": 3221,
      "hest": 3222,
      "ĠComm": 3223,
      "orth": 3224,
      "most": 3225,
      "work": 3226,
      "ously": 3227,
      "Ġemp": 3228,
      "Ġcolle": 3229,
      "llent": 3230,
      "Ġtell": 3231,
      "Ġchemical": 3232,
      "ators": 3233,
      "Ġtown": 3234,
      "Ġgar": 3235,
      "Ġmen": 3236,
      "erence": 3237,
      "Ġ11": 3238,
      "rought": 3239,
      "Ġreturns": 3240,
      "ĠSocial": 3241,
      "rim": 3242,
      "Ġessay": 3243,
      "Ġseries": 3244,
      "Ġthreat": 3245,
      "ffee": 3246,
      "Ġdang": 3247,
      "Ġscientific": 3248,
      "Ġgames": 3249,
      "ĠPerson": 3250,
      "Ġsweet": 3251,
      "Ġhypot": 3252,
      "ows": 3253,
      "Ġentertain": 3254,
      "Ġhistor": 3255,
      "Ġwatch": 3256,
      "Ġclassification": 3257,
      "Ġmeeting": 3258,
      "Ġarchitect": 3259,
      "Ġox": 3260,
      "Ġrich": 3261,
      "Ġfoods": 3262,
      "Ġstrugg": 3263,
      "Ġwrite": 3264,
      "Ġsurv": 3265,
      "overy": 3266,
      "aris": 3267,
      "asp": 3268,
      "Ġang": 3269,
      "Ġconvey": 3270,
      "Ġexpenses": 3271,
      "ibilities": 3272,
      "Ġsets": 3273,
      "rope": 3274,
      "Ġroutine": 3275,
      "She": 3276,
      "Ġplayers": 3277,
      "ĠIncre": 3278,
      "ĠWar": 3279,
      "aced": 3280,
      "Ġlargest": 3281,
      "Ġtim": 3282,
      "ĠAv": 3283,
      "go": 3284,
      "ufact": 3285,
      "Ġdom": 3286,
      "Ġanalyzing": 3287,
      "Ġapproximately": 3288,
      "Ġtips": 3289,
      "ĠIntern": 3290,
      "Ġrecent": 3291,
      "Ġbecame": 3292,
      "Ġfuels": 3293,
      "Ġlimited": 3294,
      "Ġesp": 3295,
      "Ġstarting": 3296,
      "Ġrisks": 3297,
      "Ġinteractive": 3298,
      "Ġvillage": 3299,
      "Ġbow": 3300,
      "Ġmeal": 3301,
      "Ġserve": 3302,
      "Ġcream": 3303,
      "Ġsmartph": 3304,
      "Ġ30": 3305,
      "##": 3306,
      "Ġfossil": 3307,
      "Ġrefer": 3308,
      "Ġthoughts": 3309,
      "Ġthinking": 3310,
      "ags": 3311,
      "Ġdriving": 3312,
      "rastructure": 3313,
      "ivil": 3314,
      "Ġmonitor": 3315,
      "force": 3316,
      "Ġrapid": 3317,
      "making": 3318,
      "Ġencourage": 3319,
      "eat": 3320,
      "ule": 3321,
      "Ġsepar": 3322,
      "volution": 3323,
      "ĠDes": 3324,
      "Ġparts": 3325,
      "onom": 3326,
      "Ġusage": 3327,
      "phas": 3328,
      "atically": 3329,
      "Ġvirus": 3330,
      "alyze": 3331,
      "sh": 3332,
      "Ġconvert": 3333,
      "ĠJava": 3334,
      "rench": 3335,
      "tering": 3336,
      "Ġdioxide": 3337,
      "Ġanswer": 3338,
      "urs": 3339,
      "Ġgrowing": 3340,
      "Ġdelivery": 3341,
      "ĠEurope": 3342,
      "Ġpark": 3343,
      "ached": 3344,
      "Ġbuilt": 3345,
      "iddle": 3346,
      "Ġappe": 3347,
      "Ġremind": 3348,
      "Ġremove": 3349,
      "Ġlocated": 3350,
      "Ġsalt": 3351,
      "mon": 3352,
      "Ġdy": 3353,
      "Ġblood": 3354,
      "ĠAnother": 3355,
      "Ġpepper": 3356,
      "Ġhandle": 3357,
      "ĠApple": 3358,
      "Ġanx": 3359,
      "Ġincred": 3360,
      "Ġexpand": 3361,
      "ser": 3362,
      "utput": 3363,
      "Ġrather": 3364,
      "Ġappre": 3365,
      "Ġhor": 3366,
      "Ġrandom": 3367,
      "Ġschedule": 3368,
      "Ġbatter": 3369,
      "Ġsoil": 3370,
      "Ġimplementing": 3371,
      "Edit": 3372,
      "ares": 3373,
      "inct": 3374,
      "chan": 3375,
      "othing": 3376,
      "Ġintegr": 3377,
      "Ġreason": 3378,
      "Ġparent": 3379,
      "Ġpet": 3380,
      "Ġanything": 3381,
      "Ġparty": 3382,
      "forest": 3383,
      "board": 3384,
      "By": 3385,
      "rap": 3386,
      "Ġgenerally": 3387,
      "ĠIndia": 3388,
      "Ġerror": 3389,
      "iel": 3390,
      "Ġrelease": 3391,
      "Ġerrors": 3392,
      "med": 3393,
      "Ġlines": 3394,
      "Ġpassword": 3395,
      "Ġheight": 3396,
      "ĠRep": 3397,
      "mit": 3398,
      "Ġcit": 3399,
      "Ġlost": 3400,
      "Ġextract": 3401,
      "Ġguide": 3402,
      "Ġrecord": 3403,
      "Ġevidence": 3404,
      "Ġcommit": 3405,
      "Ġcauses": 3406,
      "Ġrules": 3407,
      "Ġcamer": 3408,
      "ĠX": 3409,
      "icial": 3410,
      "Ġtreatment": 3411,
      "Ġdiverse": 3412,
      "Ġmechan": 3413,
      "Ġtemperatures": 3414,
      "You": 3415,
      "list": 3416,
      "Ġinfrastructure": 3417,
      "----------------": 3418,
      "\":": 3419,
      "ny": 3420,
      "reme": 3421,
      "Ġdetermined": 3422,
      "Ar": 3423,
      "aps": 3424,
      "Ġready": 3425,
      "ĠRegular": 3426,
      "min": 3427,
      "olve": 3428,
      "Ġemotional": 3429,
      "atory": 3430,
      "Ġrates": 3431,
      "numb": 3432,
      "Ġaff": 3433,
      "Ġelectricity": 3434,
      "alculate": 3435,
      "cast": 3436,
      "Ġguid": 3437,
      "Ġlatest": 3438,
      "asc": 3439,
      "cel": 3440,
      "Ġboard": 3441,
      "Ġhol": 3442,
      "Ġhappy": 3443,
      "Ġones": 3444,
      "Ġsubs": 3445,
      "ĠRem": 3446,
      "Ġemphas": 3447,
      "Based": 3448,
      "ĠEach": 3449,
      "ĠBoth": 3450,
      "Ġgoods": 3451,
      "Ġloyalty": 3452,
      "Ġappreci": 3453,
      "Ġtheme": 3454,
      "ball": 3455,
      "hold": 3456,
      "ecially": 3457,
      "Ġtrain": 3458,
      "Ġnutri": 3459,
      "ĠĠčĊ": 3460,
      "Ġcalculated": 3461,
      "Ġrecycling": 3462,
      "`,": 3463,
      "Ġgetting": 3464,
      "Ġbrain": 3465,
      "Ġmillion": 3466,
      "Ġprevious": 3467,
      "Ġtaste": 3468,
      "Ġfelt": 3469,
      "Ġmanufact": 3470,
      "Ġorganized": 3471,
      "Ġlifest": 3472,
      "Ġespecially": 3473,
      "room": 3474,
      "Ġprote": 3475,
      "Ġassess": 3476,
      "Ġchallenging": 3477,
      "Ġded": 3478,
      "ĠCar": 3479,
      "Ġspending": 3480,
      "Ġextra": 3481,
      "Ġemployee": 3482,
      "oph": 3483,
      "Ġtrying": 3484,
      "Ġelse": 3485,
      "Ġvideo": 3486,
      "Ġnavigate": 3487,
      "Ġtone": 3488,
      "eria": 3489,
      "Ġmachines": 3490,
      "Ġ17": 3491,
      "Ġunivers": 3492,
      "Ġmulti": 3493,
      "Ġadject": 3494,
      "Ġplanning": 3495,
      "Ġethical": 3496,
      "Ġcand": 3497,
      "Ġwent": 3498,
      "Ġinteractions": 3499,
      "Ġsand": 3500,
      "duc": 3501,
      "icken": 3502,
      "Ġsummer": 3503,
      "Ġcells": 3504,
      "Compare": 3505,
      "Come": 3506,
      "ffective": 3507,
      "Ġperspect": 3508,
      "Ġcoffee": 3509,
      "Ġbaking": 3510,
      "ĠTechn": 3511,
      "ygen": 3512,
      "erate": 3513,
      "Ġcra": 3514,
      "ĠHealth": 3515,
      "Ġstarted": 3516,
      "ana": 3517,
      "Ġrepl": 3518,
      "Ġgold": 3519,
      "Ġskin": 3520,
      "Ġbelieve": 3521,
      "Ġchallenge": 3522,
      "Ġdefin": 3523,
      "Ġoperating": 3524,
      "lt": 3525,
      "ried": 3526,
      "Ġexperiment": 3527,
      "17": 3528,
      "ply": 3529,
      "Ġgirl": 3530,
      "tenance": 3531,
      "Ġlapt": 3532,
      "Ġoriginal": 3533,
      "Ġabilities": 3534,
      "name": 3535,
      "ont": 3536,
      "Ġsuitable": 3537,
      "Ġseason": 3538,
      "Ġconnected": 3539,
      "man": 3540,
      "where": 3541,
      "Ġver": 3542,
      "Ġmanaging": 3543,
      "Ġhands": 3544,
      "Ġrequirements": 3545,
      "tificial": 3546,
      "Ġcame": 3547,
      "Ġsupply": 3548,
      "When": 3549,
      "imal": 3550,
      "rypt": 3551,
      "Ġuseful": 3552,
      "Ġcapital": 3553,
      "ailed": 3554,
      "Ġcele": 3555,
      "ĠCO": 3556,
      "Ġshared": 3557,
      "etermine": 3558,
      "uild": 3559,
      "ediate": 3560,
      "Ġoutd": 3561,
      "Ġagricult": 3562,
      "Ġprompt": 3563,
      "Ġcareer": 3564,
      "Ġlimit": 3565,
      "Ġcredit": 3566,
      "Phone": 3567,
      "tics": 3568,
      "Ġfish": 3569,
      "Ġmit": 3570,
      "unning": 3571,
      "Ġthemselves": 3572,
      "Ġtransactions": 3573,
      "Ġmovement": 3574,
      "Ġeye": 3575,
      "gon": 3576,
      "Ġmis": 3577,
      "Ġmist": 3578,
      "ĠHT": 3579,
      "Ġprep": 3580,
      "Ġwebsites": 3581,
      "Ġreliable": 3582,
      "Ġteacher": 3583,
      "Ġshows": 3584,
      "icing": 3585,
      "ĠTrans": 3586,
      "Ġinterview": 3587,
      "uck": 3588,
      "Ġpresence": 3589,
      "Ġexcellent": 3590,
      "Ġanxiety": 3591,
      "rics": 3592,
      "Ġlink": 3593,
      "Ġflu": 3594,
      "rial": 3595,
      "Ġ16": 3596,
      "Ġfootprint": 3597,
      "Ġpolicies": 3598,
      "fer": 3599,
      "iced": 3600,
      "Ġinterp": 3601,
      "Ġsaw": 3602,
      "Ġinterests": 3603,
      "Make": 3604,
      "efficient": 3605,
      "we": 3606,
      "ĠAf": 3607,
      "cript": 3608,
      "Ġstandard": 3609,
      "Ġsubst": 3610,
      "Ġtook": 3611,
      "bit": 3612,
      "ĠPe": 3613,
      "agers": 3614,
      "Ġund": 3615,
      "Ġsauce": 3616,
      "Ġconcise": 3617,
      "ready": 3618,
      "ĠFrench": 3619,
      "Ġcomfortable": 3620,
      "Ġcast": 3621,
      "Ġcooking": 3622,
      "ban": 3623,
      "chain": 3624,
      "Ġenable": 3625,
      "ĠFinally": 3626,
      "ological": 3627,
      "Ġfail": 3628,
      "eds": 3629,
      "Ġthird": 3630,
      "Ġkeeping": 3631,
      "Ġconnection": 3632,
      "ĠZ": 3633,
      "Ġcm": 3634,
      "Ġcapable": 3635,
      "Ġhyd": 3636,
      "ties": 3637,
      "ission": 3638,
      "Ġreceive": 3639,
      "agon": 3640,
      "ĠJack": 3641,
      "Ġalready": 3642,
      "Ġlifestyle": 3643,
      "13": 3644,
      "ML": 3645,
      "Ġbrought": 3646,
      "Ġsharing": 3647,
      "ands": 3648,
      "Ġclassify": 3649,
      "Ġaccessible": 3650,
      "Ġfocused": 3651,
      "Ġvideos": 3652,
      "Ġbul": 3653,
      "ctor": 3654,
      "Ġimmediate": 3655,
      "alf": 3656,
      "Ġmagn": 3657,
      "Ġearth": 3658,
      "azon": 3659,
      "Ġdegrees": 3660,
      "Ġwood": 3661,
      "Ġphotos": 3662,
      "16": 3663,
      "cks": 3664,
      "Ġpatients": 3665,
      "ID": 3666,
      "ĠAss": 3667,
      "Ġsports": 3668,
      "ĠMed": 3669,
      "Ġscale": 3670,
      "Ġawareness": 3671,
      "Ġcultural": 3672,
      "lation": 3673,
      "Ġhappiness": 3674,
      "aff": 3675,
      "ster": 3676,
      "Ġcollaboration": 3677,
      "lines": 3678,
      "sp": 3679,
      "Ġmi": 3680,
      "Ġsty": 3681,
      "Ġcondition": 3682,
      "ively": 3683,
      "Ġfavorite": 3684,
      "isms": 3685,
      "Ġchart": 3686,
      "iation": 3687,
      "Ġjobs": 3688,
      "Ġkingdom": 3689,
      "ĠPersonal": 3690,
      "date": 3691,
      "Ġfeet": 3692,
      "Ġsatisf": 3693,
      "))": 3694,
      "ĠDec": 3695,
      "Ġdeveloped": 3696,
      "Ġfunctions": 3697,
      "Ġstre": 3698,
      "Ġstorm": 3699,
      "ellow": 3700,
      "ipment": 3701,
      "Ġbowl": 3702,
      "Ġcitiz": 3703,
      "rong": 3704,
      "hens": 3705,
      "Ġstored": 3706,
      "Ġ25": 3707,
      "Ġefficiently": 3708,
      "Ġdecrease": 3709,
      "ĠNe": 3710,
      "Ġvision": 3711,
      "Ġmatch": 3712,
      "Ġmood": 3713,
      "iber": 3714,
      "Ġmedium": 3715,
      "Ġreading": 3716,
      "Ġbelong": 3717,
      "Ġbreaks": 3718,
      "Ġutil": 3719,
      "Ġgases": 3720,
      "Ġcold": 3721,
      "Ġlandsc": 3722,
      "process": 3723,
      "Sure": 3724,
      "Ġscreen": 3725,
      "Ġbecomes": 3726,
      "Ġcategories": 3727,
      "Ġtablesp": 3728,
      "lar": 3729,
      "Ġsite": 3730,
      "Ġprob": 3731,
      "ocks": 3732,
      "Ġshown": 3733,
      "Ġprivacy": 3734,
      "roll": 3735,
      "rain": 3736,
      "Ġplayed": 3737,
      "Ġhighest": 3738,
      "(\"": 3739,
      "Ġfr": 3740,
      "Ġstars": 3741,
      "ĠDef": 3742,
      "Ġsimpl": 3743,
      "],": 3744,
      "Ġtense": 3745,
      "ompl": 3746,
      "Ġoutside": 3747,
      "lished": 3748,
      "Ġclos": 3749,
      "ĠGerm": 3750,
      "Ġgreatly": 3751,
      "Another": 3752,
      "Ġinnovation": 3753,
      "Ġslic": 3754,
      "oration": 3755,
      "urt": 3756,
      "opt": 3757,
      "Compose": 3758,
      "esc": 3759,
      "entle": 3760,
      "Ġaccompl": 3761,
      "Ġleader": 3762,
      "comm": 3763,
      "ned": 3764,
      "Ġeating": 3765,
      "change": 3766,
      "Ġspend": 3767,
      "Ġlack": 3768,
      "ĠFrom": 3769,
      "Ġtrip": 3770,
      "izz": 3771,
      "Ġaccept": 3772,
      "ooks": 3773,
      "Ġenter": 3774,
      "Ġlibr": 3775,
      "Ġtheory": 3776,
      "Ġcommunities": 3777,
      "Ġliter": 3778,
      "arah": 3779,
      "Ġleave": 3780,
      "Ġkit": 3781,
      "Wh": 3782,
      "ades": 3783,
      "plement": 3784,
      "Ġcover": 3785,
      "Ġremo": 3786,
      "Ġfilm": 3787,
      "Ġboost": 3788,
      "Ġinfluence": 3789,
      "ĠAfric": 3790,
      "asure": 3791,
      "ĠOverall": 3792,
      "ĠName": 3793,
      "Ġmilk": 3794,
      "oons": 3795,
      "Ġremains": 3796,
      "Ġbirds": 3797,
      "Ġfruit": 3798,
      "Ġadvantage": 3799,
      "ugg": 3800,
      "Ġpun": 3801,
      "ĠAmazon": 3802,
      "Ġpresentation": 3803,
      "book": 3804,
      "onstr": 3805,
      "idge": 3806,
      "Ġadded": 3807,
      "Analyze": 3808,
      "Ġgro": 3809,
      "ĠYork": 3810,
      "Ġretrie": 3811,
      "Ġharmful": 3812,
      "known": 3813,
      "num": 3814,
      "Ġinvolved": 3815,
      "Ġestablish": 3816,
      "Ġultimately": 3817,
      "my": 3818,
      "Ġâ": 3819,
      "arily": 3820,
      "Ġeat": 3821,
      "Ġvibr": 3822,
      "Ġabsor": 3823,
      "Ġadvertising": 3824,
      "Ġbread": 3825,
      "Ġrecommendations": 3826,
      "Ġcake": 3827,
      "Ġcross": 3828,
      "Ġmetap": 3829,
      "Ġscientists": 3830,
      "Ġmountain": 3831,
      "Ġwonder": 3832,
      "Ġarchitecture": 3833,
      "cient": 3834,
      "Ġitself": 3835,
      "Ġrow": 3836,
      "Ġplays": 3837,
      "enue": 3838,
      "Ġreality": 3839,
      "vere": 3840,
      "amp": 3841,
      "Ġmole": 3842,
      "Ġpossess": 3843,
      "Ġevaluate": 3844,
      "Ġdamage": 3845,
      "Ġbill": 3846,
      "NA": 3847,
      "Ġmoving": 3848,
      "Ġtrade": 3849,
      "Ġwalking": 3850,
      "Ġentertainment": 3851,
      "Ġtow": 3852,
      "Ġdry": 3853,
      "Ġfundam": 3854,
      "!\"": 3855,
      "anging": 3856,
      "ĠGreat": 3857,
      "Ġbenefit": 3858,
      "Ġconcepts": 3859,
      "ography": 3860,
      "Ġinitial": 3861,
      "Ġnorm": 3862,
      "Ġremember": 3863,
      "Ġinteresting": 3864,
      "Ġconversation": 3865,
      "Ġwealth": 3866,
      "ĠLe": 3867,
      "Ġsituations": 3868,
      "solving": 3869,
      "ĠFirst": 3870,
      "apan": 3871,
      "verty": 3872,
      "Ġproperly": 3873,
      "ĠUsing": 3874,
      "Ġflexibility": 3875,
      "vised": 3876,
      "inated": 3877,
      "ĠYour": 3878,
      "Ġcentury": 3879,
      "ĠiPhone": 3880,
      "Ġupdates": 3881,
      "Ġbeach": 3882,
      "ĠIts": 3883,
      "Ġcreativity": 3884,
      "Ġsaid": 3885,
      "iding": 3886,
      "ĠAll": 3887,
      "anges": 3888,
      "Ġsyn": 3889,
      "Ġregard": 3890,
      "Ġmorning": 3891,
      "ĠSal": 3892,
      "Ġcapabilities": 3893,
      "25": 3894,
      "inner": 3895,
      "Ġleaving": 3896,
      "Ġclasses": 3897,
      "Ġelectr": 3898,
      "Ġprojects": 3899,
      "ounter": 3900,
      "Ġcrop": 3901,
      "osis": 3902,
      "Ġoffering": 3903,
      "Ġgarden": 3904,
      "Ġroot": 3905,
      "Ġreduced": 3906,
      "Ġdistinct": 3907,
      "Ġlayers": 3908,
      "Ġteasp": 3909,
      "Ġinvent": 3910,
      "Ġfriendly": 3911,
      "Ġdynam": 3912,
      "Ġcelebr": 3913,
      "irm": 3914,
      "ĠRob": 3915,
      "ibly": 3916,
      "ribution": 3917,
      "Ġletters": 3918,
      "Ġfully": 3919,
      "load": 3920,
      "Ġoxygen": 3921,
      "'.": 3922,
      "30": 3923,
      "Ġhon": 3924,
      "Ġexh": 3925,
      "ensity": 3926,
      "Ġhardware": 3927,
      "ilit": 3928,
      "Ġload": 3929,
      "Ġhistorical": 3930,
      "Ġgentle": 3931,
      "Ġchanged": 3932,
      "Ġextreme": 3933,
      "Ġinterpret": 3934,
      "ole": 3935,
      "Ġcompared": 3936,
      "Ġscore": 3937,
      "Ġresponsibility": 3938,
      "LP": 3939,
      "Ġcompre": 3940,
      "ensive": 3941,
      "Ġcalm": 3942,
      "ĠKing": 3943,
      "Ġemails": 3944,
      "Ġfinally": 3945,
      "Ġmonit": 3946,
      "Ġcontinues": 3947,
      "Ġexisting": 3948,
      "itam": 3949,
      "ĠDo": 3950,
      "Ġdoing": 3951,
      "Ġequipment": 3952,
      "Ġdeath": 3953,
      "Ġdiscover": 3954,
      "Ġadvancements": 3955,
      "Ġaspects": 3956,
      "augh": 3957,
      "valu": 3958,
      "itize": 3959,
      "Ġincreases": 3960,
      "Ġdemonstr": 3961,
      "idents": 3962,
      "\">": 3963,
      "Ġselection": 3964,
      "ĠPres": 3965,
      "Ġnuc": 3966,
      "Ġhelpful": 3967,
      "Ġroll": 3968,
      "ĠJapan": 3969,
      "Ġ2021": 3970,
      "Convert": 3971,
      "Ġwoman": 3972,
      "ket": 3973,
      "Ġdress": 3974,
      "Ġtele": 3975,
      "Ġtechnical": 3976,
      "Ġidentifying": 3977,
      "yond": 3978,
      "Ġgiving": 3979,
      "Ġinfect": 3980,
      "Ġinternational": 3981,
      "Ġminimize": 3982,
      "Ġsil": 3983,
      "Ġcod": 3984,
      "Ġhost": 3985,
      "Ġstage": 3986,
      "Ġfear": 3987,
      "Ġsoon": 3988,
      "Ġfamil": 3989,
      "Ġoven": 3990,
      "Ġstories": 3991,
      "ĠNo": 3992,
      "Ġsimply": 3993,
      "Ġlaws": 3994,
      "Ġexpected": 3995,
      "Ġic": 3996,
      "Ġenables": 3997,
      "ternal": 3998,
      "________": 3999,
      "Ġobserv": 4000,
      "ners": 4001,
      "arc": 4002,
      "ĠSim": 4003,
      "Ġincent": 4004,
      "atively": 4005,
      "Ġmaintenance": 4006,
      "Ġcarefully": 4007,
      "Ġprotection": 4008,
      "ĠQu": 4009,
      "Your": 4010,
      "abling": 4011,
      "ĠBrit": 4012,
      "ension": 4013,
      "Ġgrav": 4014,
      "Ġpassion": 4015,
      "Ġchoices": 4016,
      "Ġann": 4017,
      "sem": 4018,
      "Ġhabits": 4019,
      "Ġfitness": 4020,
      "ying": 4021,
      "itions": 4022,
      "Ġbur": 4023,
      "Ġnoun": 4024,
      "rief": 4025,
      "Ġmemories": 4026,
      "Ġcycle": 4027,
      "Ġtomat": 4028,
      "ĠĠĠĠĠĠ": 4029,
      "Ġplans": 4030,
      "lications": 4031,
      "Ġrequest": 4032,
      "Ġserver": 4033,
      "Ġhomes": 4034,
      "string": 4035,
      "Ġdecided": 4036,
      "Ġcarry": 4037,
      "Ġpassed": 4038,
      "Ġeducational": 4039,
      "Ġmusc": 4040,
      "Ġaf": 4041,
      "Ġyog": 4042,
      "ĠSec": 4043,
      "Ġworkers": 4044,
      "Ġpoverty": 4045,
      "Ġachieved": 4046,
      "Ġbottom": 4047,
      "Ad": 4048,
      "range": 4049,
      "Ġachieving": 4050,
      "ognitive": 4051,
      "ĠPlan": 4052,
      "ded": 4053,
      "ends": 4054,
      "ĠChina": 4055,
      "Ġ}": 4056,
      "Ġchicken": 4057,
      "ĠEns": 4058,
      "Ġdevelopers": 4059,
      "Ġrecognize": 4060,
      "idden": 4061,
      "Ġcapture": 4062,
      "Ġnutrients": 4063,
      "Ġ200": 4064,
      "Ġdirection": 4065,
      "ley": 4066,
      "Ġlot": 4067,
      "Ġcompare": 4068,
      "Ġcentral": 4069,
      "John": 4070,
      "Ġpict": 4071,
      "Ġsounds": 4072,
      "Ġrobots": 4073,
      "sing": 4074,
      "Ġcats": 4075,
      "itution": 4076,
      "ĠLet": 4077,
      "Ġregion": 4078,
      "Ġflavor": 4079,
      "Ġcleaning": 4080,
      "ciples": 4081,
      "Ġsavings": 4082,
      "iors": 4083,
      "arry": 4084,
      "Ġlate": 4085,
      "Ġcollection": 4086,
      "coming": 4087,
      "Im": 4088,
      "Ġir": 4089,
      "igate": 4090,
      "Ġenabling": 4091,
      "Ġregulations": 4092,
      "iances": 4093,
      "Ġloved": 4094,
      "ccording": 4095,
      "Ġcitizens": 4096,
      "Ġbed": 4097,
      "nderstand": 4098,
      "Ġcontinued": 4099,
      "Ġmaximum": 4100,
      "Ġvibrant": 4101,
      "Ġhun": 4102,
      "Ġdiscount": 4103,
      "tings": 4104,
      "icate": 4105,
      "ĠMod": 4106,
      "Calculate": 4107,
      "whel": 4108,
      "Ġcivil": 4109,
      "Ġinstall": 4110,
      "Ġorganic": 4111,
      "Ġtopics": 4112,
      "Ġprefer": 4113,
      "Ġ14": 4114,
      "ategory": 4115,
      "Ġbelief": 4116,
      "Ġcases": 4117,
      "estic": 4118,
      "Ġbecoming": 4119,
      "II": 4120,
      "Ġran": 4121,
      "ĠEduc": 4122,
      "Ġtracking": 4123,
      "Ġtranspare": 4124,
      "Ġbox": 4125,
      "Ġbroad": 4126,
      "Ġconflict": 4127,
      "Ġid": 4128,
      "onic": 4129,
      "ptoms": 4130,
      "Ġtruly": 4131,
      "Ġcompetition": 4132,
      "Ġprinciples": 4133,
      "Ġpu": 4134,
      "omen": 4135,
      "Ġ50": 4136,
      "Ġfraud": 4137,
      "Ġbirth": 4138,
      "Ġwildlife": 4139,
      "col": 4140,
      "tra": 4141,
      "Ġfight": 4142,
      "Ġinteraction": 4143,
      "Ġfreed": 4144,
      "Ġoptimize": 4145,
      "Ġinnovative": 4146,
      "ĠFrance": 4147,
      "From": 4148,
      "vest": 4149,
      "iling": 4150,
      "Ġrecords": 4151,
      "Ġideal": 4152,
      "Ġocc": 4153,
      "ĠEncourage": 4154,
      "Ġlaptop": 4155,
      "Ġdishes": 4156,
      "Ġdetailed": 4157,
      "Ġgrand": 4158,
      "Ġecosystems": 4159,
      "But": 4160,
      "Ġpair": 4161,
      "Ġstunning": 4162,
      "Ġtechnique": 4163,
      "ĠAmerica": 4164,
      "ategorize": 4165,
      "Ġcyber": 4166,
      "fast": 4167,
      "Ġcou": 4168,
      "eline": 4169,
      "Ġchain": 4170,
      "ĠWater": 4171,
      "ounds": 4172,
      "Ġrealized": 4173,
      "imin": 4174,
      "ĠHer": 4175,
      "order": 4176,
      "ipped": 4177,
      "ctu": 4178,
      "eth": 4179,
      "Ġdead": 4180,
      "xture": 4181,
      "nesses": 4182,
      "Ġlaugh": 4183,
      "Ġfulf": 4184,
      "Ġdirectly": 4185,
      "Ġtall": 4186,
      "ull": 4187,
      "ĠGet": 4188,
      "Ġeffectiveness": 4189,
      "ĠHTML": 4190,
      "Ġmiddle": 4191,
      "ĠTw": 4192,
      "urance": 4193,
      "Ġappears": 4194,
      "Ġdescribes": 4195,
      "fit": 4196,
      "rad": 4197,
      "Ġvital": 4198,
      "Ġexploring": 4199,
      "ĠImplement": 4200,
      "rig": 4201,
      "Ġstores": 4202,
      "ĠAut": 4203,
      "Ġtransfer": 4204,
      "overed": 4205,
      "Ġanalytics": 4206,
      "QL": 4207,
      "sy": 4208,
      "Ġcatch": 4209,
      "Ġlik": 4210,
      "Ġmessages": 4211,
      "First": 4212,
      "Ġstop": 4213,
      "Ġbeyond": 4214,
      "Ġidentity": 4215,
      "ustr": 4216,
      "ĠFe": 4217,
      "Ġoverwhel": 4218,
      "Ġanyone": 4219,
      "Ġorganize": 4220,
      "iol": 4221,
      "ĠSw": 4222,
      "ello": 4223,
      "Ġmedic": 4224,
      "Ġcandid": 4225,
      "rug": 4226,
      "Ġju": 4227,
      "Ġleads": 4228,
      "ltimately": 4229,
      "Ġmetaphor": 4230,
      "ĠPol": 4231,
      "Ġafford": 4232,
      "If": 4233,
      "SS": 4234,
      "Ġpages": 4235,
      "Ġfost": 4236,
      "owered": 4237,
      "Ġ24": 4238,
      "Ġ2020": 4239,
      "ĠInstead": 4240,
      "Ġgarlic": 4241,
      "gment": 4242,
      "Ġalone": 4243,
      "Ġspent": 4244,
      "ameters": 4245,
      "zy": 4246,
      "De": 4247,
      "ky": 4248,
      "ynt": 4249,
      "Ġsou": 4250,
      "ĠDon": 4251,
      "ĠImproved": 4252,
      "ror": 4253,
      "Ġpros": 4254,
      "Ġworkplace": 4255,
      "Ġreleased": 4256,
      "Ġsection": 4257,
      "Ġmixture": 4258,
      "En": 4259,
      "Ġchann": 4260,
      "ĠHigh": 4261,
      "Ġsynt": 4262,
      "Ġrising": 4263,
      "lusive": 4264,
      "Ġdescript": 4265,
      "ĠInternet": 4266,
      "Ġwaves": 4267,
      "veys": 4268,
      "Ġengineering": 4269,
      "Ġreviews": 4270,
      "Ġdiversity": 4271,
      "Ġprotein": 4272,
      "Ġcomprehens": 4273,
      "ians": 4274,
      "set": 4275,
      "orking": 4276,
      "isp": 4277,
      "Ġet": 4278,
      "antic": 4279,
      "Ġfriendship": 4280,
      "Ġcoord": 4281,
      "Ġmathematical": 4282,
      "Ġstruct": 4283,
      "Ġheard": 4284,
      "Ġvitam": 4285,
      "mma": 4286,
      "Ġoffice": 4287,
      "Ġinside": 4288,
      "Ġmotion": 4289,
      "Ġmiles": 4290,
      "Ġfigure": 4291,
      "ĠPart": 4292,
      "Ġapps": 4293,
      "Ġrevenue": 4294,
      "Ġresponses": 4295,
      "Ġsymptoms": 4296,
      "Ġconvenient": 4297,
      "Categorize": 4298,
      "Ġprime": 4299,
      "Ġpotentially": 4300,
      "Ġlegal": 4301,
      "Ġdestination": 4302,
      "idth": 4303,
      "Ġclim": 4304,
      "Ġcompleted": 4305,
      "Ġlinear": 4306,
      "Ġbiod": 4307,
      "Ġflowers": 4308,
      "Ġconsistent": 4309,
      "Ġscenari": 4310,
      "ww": 4311,
      "Ġtur": 4312,
      "Ġacad": 4313,
      "rue": 4314,
      "Ġoutcome": 4315,
      "Ġdetermination": 4316,
      "Ġassistance": 4317,
      "athy": 4318,
      "Ġexpectations": 4319,
      "Ġconstantly": 4320,
      "Ã©": 4321,
      "Ġhar": 4322,
      "ript": 4323,
      "Ġreduces": 4324,
      "Ġflour": 4325,
      "Ġpropos": 4326,
      "ĠEl": 4327,
      "Ġmanip": 4328,
      "Ġscript": 4329,
      "Ġprivate": 4330,
      "45": 4331,
      "ml": 4332,
      "ĠIdentify": 4333,
      "Ġpattern": 4334,
      "Ġgenerations": 4335,
      "Ġfuel": 4336,
      "ĠIntelligence": 4337,
      "Ġmonths": 4338,
      "Ġbeginning": 4339,
      "Ġversion": 4340,
      "Ġlandscape": 4341,
      "Ġabsorb": 4342,
      "iles": 4343,
      "Ġsuns": 4344,
      "Ġsolving": 4345,
      "Ġvisually": 4346,
      "Ġfacilit": 4347,
      "pite": 4348,
      "ĠMarket": 4349,
      "vantages": 4350,
      "Ġmovies": 4351,
      "Ġupdate": 4352,
      "Ġexpensive": 4353,
      "Ġapart": 4354,
      "ĠThat": 4355,
      "Ġhelped": 4356,
      "Ġimprovement": 4357,
      "reak": 4358,
      "Ġpub": 4359,
      "Ġine": 4360,
      "Ġrock": 4361,
      "Ġchoosing": 4362,
      "Ġdepends": 4363,
      "Ġdocuments": 4364,
      "'ve": 4365,
      "Ġcognitive": 4366,
      "Ġexchange": 4367,
      "Ġindex": 4368,
      "Ġshel": 4369,
      "Ġgeneration": 4370,
      "Ġassistants": 4371,
      "Ġcreation": 4372,
      "Ġheavy": 4373,
      "ĠAct": 4374,
      "Ġplaces": 4375,
      "Ġcreates": 4376,
      "Ġlights": 4377,
      "Ġsuggests": 4378,
      "Ġteaspoon": 4379,
      "Com": 4380,
      "Ġast": 4381,
      "ĠProm": 4382,
      "Ġregression": 4383,
      "ought": 4384,
      "ĠIncreased": 4385,
      "My": 4386,
      "anch": 4387,
      "ĠSystem": 4388,
      "ployment": 4389,
      "Ġpassage": 4390,
      "Ġgenerated": 4391,
      "Ġprofession": 4392,
      "NN": 4393,
      "Ġdepth": 4394,
      "..": 4395,
      "After": 4396,
      "Ġbinary": 4397,
      "Ġconsumer": 4398,
      "Ġestim": 4399,
      "Ġincreasingly": 4400,
      "Ġbrown": 4401,
      "Ġagriculture": 4402,
      "Ġgrew": 4403,
      "SE": 4404,
      "ĠSarah": 4405,
      "Ġsunlight": 4406,
      "Ġcompetitive": 4407,
      "Ġappliances": 4408,
      "ux": 4409,
      "Ġfront": 4410,
      "ctors": 4411,
      "Ġthing": 4412,
      "osition": 4413,
      "illa": 4414,
      "Ġdisrupt": 4415,
      "Ġfollowed": 4416,
      "Ġcharacterized": 4417,
      "Ġhypothesis": 4418,
      "Ġrapidly": 4419,
      "Ġtour": 4420,
      "ĠCal": 4421,
      "ighb": 4422,
      "Ġovercome": 4423,
      "ĠThrough": 4424,
      "Ġsnow": 4425,
      "Ġmissing": 4426,
      "Ġblockchain": 4427,
      "resp": 4428,
      "Ġcouldn": 4429,
      "acing": 4430,
      "ĠDesp": 4431,
      "ube": 4432,
      "Ġgrammar": 4433,
      "ma": 4434,
      "uis": 4435,
      "Ġcards": 4436,
      "Ġancient": 4437,
      "Ġfactor": 4438,
      "Ġeventually": 4439,
      "ĠCheck": 4440,
      "ĠSouth": 4441,
      "Ġbird": 4442,
      "Ġspeaker": 4443,
      "Ġmagical": 4444,
      "VID": 4445,
      "rogen": 4446,
      "Ġthemes": 4447,
      "Ġconsumers": 4448,
      "ĠRevolution": 4449,
      "ourses": 4450,
      "Ġaccomplish": 4451,
      "Ġple": 4452,
      "Ġfont": 4453,
      "ĠMay": 4454,
      "Ġstronger": 4455,
      "Ġopinions": 4456,
      "cending": 4457,
      "Ġyet": 4458,
      "Ġrule": 4459,
      "ĠPract": 4460,
      "Ġclothing": 4461,
      "ĠEnergy": 4462,
      "Ġsensitive": 4463,
      "Ġdogs": 4464,
      "Ġattribut": 4465,
      "ashion": 4466,
      "Ġobtain": 4467,
      "ĠOrgan": 4468,
      "ĠAvoid": 4469,
      "Ġsmartphone": 4470,
      "Ġcamera": 4471,
      "flow": 4472,
      "Ġhidden": 4473,
      "ils": 4474,
      "Ġdistribut": 4475,
      "Ġcorrectly": 4476,
      "Ġgenetic": 4477,
      "Ġscene": 4478,
      "Ġparents": 4479,
      "case": 4480,
      "ĠTom": 4481,
      "Ġtraits": 4482,
      "Ġmeaningful": 4483,
      "Ġopinion": 4484,
      "going": 4485,
      "Ġmark": 4486,
      "ulner": 4487,
      "itement": 4488,
      "Ġqual": 4489,
      "Ġregions": 4490,
      "Ġstarts": 4491,
      "Ġproperties": 4492,
      "ipping": 4493,
      "Ġstar": 4494,
      "Ġonto": 4495,
      "ĠAg": 4496,
      "ai": 4497,
      "aim": 4498,
      "ĠDuring": 4499,
      "Step": 4500,
      "Ġindependent": 4501,
      "ĠCommun": 4502,
      "commerce": 4503,
      "ĠDespite": 4504,
      "ĠDr": 4505,
      "Ġdreams": 4506,
      "Ġpen": 4507,
      "Ġ13": 4508,
      "ĠOur": 4509,
      "ractions": 4510,
      "Ġgradu": 4511,
      "Ġfocuses": 4512,
      "Ġpayment": 4513,
      "Ġfundamental": 4514,
      "Ġdou": 4515,
      "Ġorange": 4516,
      "Ġprepare": 4517,
      "ĠĠĠĠĠĠĠĠĠĠĠĠĠĠĠĠĠĠĠĠĠĠĠĠĠĠĠĠĠĠĠĠ": 4518,
      "Ġprinc": 4519,
      "Ġcampaigns": 4520,
      "Ġmonitoring": 4521,
      "?\"": 4522,
      "Ġcolumn": 4523,
      "rict": 4524,
      "Ġspaces": 4525,
      "ĠStud": 4526,
      "Ġlearned": 4527,
      "Ġexecut": 4528,
      "Ġreward": 4529,
      "Ġhear": 4530,
      "ightly": 4531,
      "Ġattend": 4532,
      "Ġconnections": 4533,
      "CT": 4534,
      "Trans": 4535,
      "Ġparties": 4536,
      "Ġlaunch": 4537,
      "cription": 4538,
      "Ġsorted": 4539,
      "Ġquantum": 4540,
      "Ġurban": 4541,
      "Ġhalf": 4542,
      "Ġexciting": 4543,
      "Ġdivided": 4544,
      "Ġsight": 4545,
      "icks": 4546,
      "Ġseek": 4547,
      "Finally": 4548,
      "Ġsell": 4549,
      "Ġbound": 4550,
      "Ġalign": 4551,
      "Ġriver": 4552,
      "Ġautomation": 4553,
      "Ġmenu": 4554,
      "eper": 4555,
      "pen": 4556,
      "Ġbond": 4557,
      "anguage": 4558,
      "powered": 4559,
      "Ġol": 4560,
      "Ġ==": 4561,
      "Ġcreatures": 4562,
      "Ġ</": 4563,
      "ĠEnsure": 4564,
      "Ġspir": 4565,
      "Ġexpert": 4566,
      "Ġexcitement": 4567,
      "Ġvisitors": 4568,
      "Ġpal": 4569,
      "ifically": 4570,
      "Ġintu": 4571,
      "Ġmeals": 4572,
      "Ġbutton": 4573,
      "Ġrepresenting": 4574,
      "Ġcultures": 4575,
      "Ġprobability": 4576,
      "ders": 4577,
      "iration": 4578,
      "Ġexternal": 4579,
      "Ġlogical": 4580,
      "Al": 4581,
      "At": 4582,
      "Ġmal": 4583,
      "Ġmamm": 4584,
      "Ġreput": 4585,
      "Ġlabor": 4586,
      "Ġvulner": 4587,
      "Ġchronic": 4588,
      "Ġweak": 4589,
      "Ġwilling": 4590,
      "Ġengaged": 4591,
      "Ġuniverse": 4592,
      "rition": 4593,
      "Ġder": 4594,
      "Ġdial": 4595,
      "ceed": 4596,
      "Ġstri": 4597,
      "eli": 4598,
      "ams": 4599,
      "text": 4600,
      "Ġproperty": 4601,
      "Ġwait": 4602,
      "Ġdynamic": 4603,
      "Cl": 4604,
      "Ġbold": 4605,
      "Ġyellow": 4606,
      "aming": 4607,
      "ĠLily": 4608,
      "Ġmeditation": 4609,
      "Ġbattery": 4610,
      "Add": 4611,
      "Ġsample": 4612,
      "Ġcourses": 4613,
      "Ġhous": 4614,
      "ĠFin": 4615,
      "orrow": 4616,
      "urity": 4617,
      "Ġcoming": 4618,
      "ado": 4619,
      "arian": 4620,
      "Ġdesigning": 4621,
      "Ġengines": 4622,
      "Ġrepresentation": 4623,
      "Ġmission": 4624,
      "Ġpowers": 4625,
      "Ġspl": 4626,
      "Ġatom": 4627,
      "Ġadvice": 4628,
      "Ġhighlight": 4629,
      "henomen": 4630,
      "Ġbehaviors": 4631,
      "Ġconstruct": 4632,
      "char": 4633,
      "Ġchance": 4634,
      "ĠHave": 4635,
      "Ġinstant": 4636,
      "Ġlayout": 4637,
      "Ġcomponent": 4638,
      "Dear": 4639,
      "Hello": 4640,
      "ðŁ": 4641,
      "Ġtend": 4642,
      "Ġconver": 4643,
      "ifications": 4644,
      "Ġsurvey": 4645,
      "Ġconfident": 4646,
      "Ġbalanced": 4647,
      "ographic": 4648,
      "ratic": 4649,
      "eries": 4650,
      "ĠĠĠĠĠĠĠĠĠĠĠĠĠĠĠ": 4651,
      "Ġfacing": 4652,
      "ĠCOVID": 4653,
      "//": 4654,
      "60": 4655,
      "elect": 4656,
      "Ġphenomen": 4657,
      "isk": 4658,
      "Ġdinner": 4659,
      "empt": 4660,
      "ĠOver": 4661,
      "Ġsched": 4662,
      "ĠGermany": 4663,
      "Ġsus": 4664,
      "Ġfat": 4665,
      "Ġrelaxation": 4666,
      "Ġbags": 4667,
      "lean": 4668,
      "Ġthick": 4669,
      "uth": 4670,
      "ĠPer": 4671,
      "ĠRet": 4672,
      "ĠOutput": 4673,
      "Ġconservation": 4674,
      "Ġrelig": 4675,
      "ĠConsider": 4676,
      "ĠPresident": 4677,
      "Ġesc": 4678,
      "ero": 4679,
      "Ġcore": 4680,
      "ĠGra": 4681,
      "ifying": 4682,
      "Ġskill": 4683,
      "Ġteams": 4684,
      "roduction": 4685,
      "Ġstandards": 4686,
      "Ġwat": 4687,
      "Ġclassic": 4688,
      "ĠSupport": 4689,
      "Ġalternative": 4690,
      "\")": 4691,
      "storm": 4692,
      "hers": 4693,
      "Ġworth": 4694,
      "ĠMicro": 4695,
      "prene": 4696,
      "sych": 4697,
      "chen": 4698,
      "Ġfro": 4699,
      "ask": 4700,
      "Ġexact": 4701,
      "ĠSun": 4702,
      "Ġneighb": 4703,
      "Ġgovernments": 4704,
      "Ġsuggestions": 4705,
      "ĠBritish": 4706,
      "33": 4707,
      "Please": 4708,
      "oke": 4709,
      "hent": 4710,
      "Ġconcent": 4711,
      "Ġsummar": 4712,
      "Ġdragon": 4713,
      "Ġprioritize": 4714,
      "':": 4715,
      "ym": 4716,
      "Ġapples": 4717,
      "fulness": 4718,
      "Ġconcern": 4719,
      "Ġgreatest": 4720,
      "Ġdiscrim": 4721,
      "Ġdistribution": 4722,
      "Ġobjectives": 4723,
      "pected": 4724,
      "ĠClimate": 4725,
      "Ġfrequency": 4726,
      "ĠTechnology": 4727,
      "ER": 4728,
      "gredients": 4729,
      "eral": 4730,
      "Ġcop": 4731,
      "ulating": 4732,
      "Ġperforming": 4733,
      "Ġwarmth": 4734,
      "ĠExpl": 4735,
      "Ġfaced": 4736,
      "Ġacademic": 4737,
      "eled": 4738,
      "reprene": 4739,
      "Ġcuis": 4740,
      "itary": 4741,
      "agement": 4742,
      "Ġapply": 4743,
      "Ġperce": 4744,
      "ĠOnline": 4745,
      "kes": 4746,
      "ino": 4747,
      "onds": 4748,
      "icip": 4749,
      "Ġreus": 4750,
      "ĠMe": 4751,
      "Ġmeat": 4752,
      "ĠInter": 4753,
      "reeze": 4754,
      "Ġworked": 4755,
      "Ġemotion": 4756,
      "Ġvolume": 4757,
      "Ġseparate": 4758,
      "ynthesis": 4759,
      "aper": 4760,
      "Ġfalse": 4761,
      "ĠTest": 4762,
      "raft": 4763,
      "soft": 4764,
      "ĠVis": 4765,
      "elligent": 4766,
      "Ġresponsibilities": 4767,
      "Ġfreedom": 4768,
      "Customer": 4769,
      "Ġcourage": 4770,
      "Ġfa": 4771,
      "Ġcompl": 4772,
      "Ġmeets": 4773,
      "Ġprotecting": 4774,
      "Ġstructures": 4775,
      "Ġdrug": 4776,
      "ĠPot": 4777,
      "Ġtea": 4778,
      "ĠMar": 4779,
      "Ġanywhere": 4780,
      "Ġcombined": 4781,
      "onym": 4782,
      "Ġfashion": 4783,
      "stac": 4784,
      "istical": 4785,
      "ĠCity": 4786,
      "ĠMy": 4787,
      "ĠNorth": 4788,
      "Ġlisten": 4789,
      "Ġdiscovered": 4790,
      "azing": 4791,
      "zzle": 4792,
      "Ġlibrary": 4793,
      "LE": 4794,
      "ollow": 4795,
      "Ġmember": 4796,
      "Ġdeliver": 4797,
      "structions": 4798,
      "ocolate": 4799,
      "ilos": 4800,
      "Ġimplications": 4801,
      "Ġscal": 4802,
      "ype": 4803,
      "Ġcomplexity": 4804,
      "Ġoutdoor": 4805,
      "Ġchannels": 4806,
      "ĠÃ": 4807,
      "Ġsend": 4808,
      "orrect": 4809,
      "anation": 4810,
      "ĠFl": 4811,
      "Ġlighting": 4812,
      "Ġsometimes": 4813,
      "Ġautomatically": 4814,
      "Ġcollected": 4815,
      "Ġiniti": 4816,
      "Ġgraphics": 4817,
      "ield": 4818,
      "asive": 4819,
      "ashing": 4820,
      "step": 4821,
      "unction": 4822,
      "active": 4823,
      "valuate": 4824,
      "now": 4825,
      "tered": 4826,
      "Ġther": 4827,
      "Ġstim": 4828,
      "Ġroles": 4829,
      "Tell": 4830,
      "Ġinqu": 4831,
      "ĠGe": 4832,
      "Ġlistening": 4833,
      "efore": 4834,
      "ĠResearch": 4835,
      "Ġmanufacturing": 4836,
      "Ġadjectives": 4837,
      "down": 4838,
      "Ġwel": 4839,
      "Ġreplace": 4840,
      "Ġreached": 4841,
      "erving": 4842,
      "Ġprediction": 4843,
      "Ġelectron": 4844,
      "Ġreceived": 4845,
      "Ġphoto": 4846,
      "Ġobstac": 4847,
      "Is": 4848,
      "iar": 4849,
      "na": 4850,
      "eless": 4851,
      "ĠCost": 4852,
      "ĠDis": 4853,
      "ĠDep": 4854,
      "Ġdepart": 4855,
      "Ġcups": 4856,
      "Ġactively": 4857,
      "encies": 4858,
      "ouds": 4859,
      "Ġvot": 4860,
      "osite": 4861,
      "Ġrating": 4862,
      "ĠMax": 4863,
      "Ġaccel": 4864,
      "Ġdecor": 4865,
      "Ġseeking": 4866,
      "Ġfiles": 4867,
      "Ġoccurs": 4868,
      "Ġpred": 4869,
      "arp": 4870,
      "ĠNational": 4871,
      "Ġavailability": 4872,
      "Ġflexible": 4873,
      "co": 4874,
      "Ġahead": 4875,
      "ĠOff": 4876,
      "Ġpredictive": 4877,
      "75": 4878,
      "mal": 4879,
      "wise": 4880,
      "Ġcategory": 4881,
      "ĠCustomer": 4882,
      "ĠĠĠĠčĊ": 4883,
      "odes": 4884,
      "Ġcoast": 4885,
      "Ġserious": 4886,
      "Ġhabitats": 4887,
      "Ġappealing": 4888,
      "Ġdemoc": 4889,
      "Ġinteger": 4890,
      "Ġbreath": 4891,
      "Ġfill": 4892,
      "Ġtransition": 4893,
      "Ġglass": 4894,
      "Ġdegree": 4895,
      "Ġpeaceful": 4896,
      "Ġretain": 4897,
      "These": 4898,
      "ups": 4899,
      "Ġfacts": 4900,
      "Ġexperienced": 4901,
      "Ġten": 4902,
      "Ġstrings": 4903,
      "Ġpopulations": 4904,
      "Ġedge": 4905,
      "Ġcompletely": 4906,
      "ĠArtificial": 4907,
      "ipp": 4908,
      "alax": 4909,
      "usion": 4910,
      "Ġdefine": 4911,
      "Ġoptimization": 4912,
      "Ġforests": 4913,
      "Ġupdated": 4914,
      "Ġbreeze": 4915,
      "Ġrect": 4916,
      "ulated": 4917,
      "rix": 4918,
      "oses": 4919,
      "Ġexploration": 4920,
      "ĠProvide": 4921,
      "Ġdefinition": 4922,
      "Determine": 4923,
      "Out": 4924,
      "ister": 4925,
      "Ġfine": 4926,
      "Ġmut": 4927,
      "Ġreally": 4928,
      "ĠTV": 4929,
      "ireless": 4930,
      "Ġclassified": 4931,
      "Ġretail": 4932,
      "roduct": 4933,
      "ĠComput": 4934,
      "more": 4935,
      "nic": 4936,
      "uming": 4937,
      "istance": 4938,
      "Ġcreature": 4939,
      "Ġmeters": 4940,
      "Ġfinance": 4941,
      "Ġschools": 4942,
      "Thank": 4943,
      "Ġremoving": 4944,
      "Ġcomprehensive": 4945,
      "Int": 4946,
      "Ġrely": 4947,
      "ĠThen": 4948,
      "Ġapple": 4949,
      "ĠĠĠĠĠĠĠĠĠ": 4950,
      "Ġserves": 4951,
      "Ġforecast": 4952,
      "Ġpowder": 4953,
      "Ġdialog": 4954,
      "icated": 4955,
      "Ġlinks": 4956,
      "amples": 4957,
      "Ġdeal": 4958,
      "odies": 4959,
      "Ġrice": 4960,
      "ĠLanguage": 4961,
      "Ġpoor": 4962,
      "Ġapproaches": 4963,
      "Ġautonom": 4964,
      "Ġstudying": 4965,
      "Ġvehicle": 4966,
      "Ġintuitive": 4967,
      "uff": 4968,
      "Ġbrief": 4969,
      "connect": 4970,
      "Ġpurchases": 4971,
      "Ġnavigation": 4972,
      "ĠReduc": 4973,
      "Ġstrengths": 4974,
      "effective": 4975,
      "atoes": 4976,
      "Ġproced": 4977,
      "ada": 4978,
      "istant": 4979,
      "Ġserving": 4980,
      "anches": 4981,
      "Ġformal": 4982,
      "Ġattack": 4983,
      "Ġfram": 4984,
      "Ġcooked": 4985,
      "driven": 4986,
      "ĠDesign": 4987,
      "Ġhoriz": 4988,
      "Ġ.": 4989,
      "Ġneut": 4990,
      "aint": 4991,
      "ĠEvery": 4992,
      "vention": 4993,
      "Ġconfidence": 4994,
      "Ġdefined": 4995,
      "Ġinternal": 4996,
      "Ġpersu": 4997,
      "Ġstraight": 4998,
      "ĠAlex": 4999,
      "ably": 5000,
      "osen": 5001,
      "Ġintended": 5002,
      "Ġoutline": 5003,
      "Ingredients": 5004,
      "Ġallowed": 5005,
      "Ġcorresp": 5006,
      "ĠProcess": 5007,
      "Ġaccounts": 5008,
      "ĠEmily": 5009,
      "Ġappearance": 5010,
      "Ġmitigate": 5011,
      "Ġsix": 5012,
      "ĠCo": 5013,
      "Ġnotes": 5014,
      "Ġrot": 5015,
      "Instructions": 5016,
      "Ġcircle": 5017,
      "Ġfrequently": 5018,
      "Ġmagic": 5019,
      "Ġwinter": 5020,
      "Ġgender": 5021,
      "Ġbeneficial": 5022,
      "Ġbrave": 5023,
      "Ġbiodiversity": 5024,
      "App": 5025,
      "itter": 5026,
      "ĠNetw": 5027,
      "ĠJust": 5028,
      "ĠChar": 5029,
      "Ġkeywords": 5030,
      "Ġoperate": 5031,
      "ĠGovern": 5032,
      "Ġwalked": 5033,
      "Ġwrong": 5034,
      "Ġheld": 5035,
      "ĠHum": 5036,
      "Ġproduced": 5037,
      "Ġorganisms": 5038,
      "Ġbringing": 5039,
      "ĠContin": 5040,
      "Ġcuisine": 5041,
      "inations": 5042,
      "Ġpace": 5043,
      "elines": 5044,
      "formation": 5045,
      "Ġdisad": 5046,
      "Ġpercent": 5047,
      "Ġsmile": 5048,
      "Ġreturned": 5049,
      "izza": 5050,
      "enty": 5051,
      "Ġease": 5052,
      "Ġempt": 5053,
      "Ġneur": 5054,
      "Ġcomparis": 5055,
      "Ġresource": 5056,
      "Ġmarkets": 5057,
      "Ġdiscovery": 5058,
      "Ġgenerating": 5059,
      "Ġarguments": 5060,
      "Ġbegins": 5061,
      "Ġembra": 5062,
      "wide": 5063,
      "Ġaid": 5064,
      "Ġnames": 5065,
      "Ġvan": 5066,
      "Ġsevere": 5067,
      "ĠGree": 5068,
      "Ġalloc": 5069,
      "Ġbranches": 5070,
      "Ġnumer": 5071,
      "Â²": 5072,
      "erb": 5073,
      "Ġgot": 5074,
      "Ġgives": 5075,
      "amless": 5076,
      "ĠSol": 5077,
      "ĠServ": 5078,
      "ĠSince": 5079,
      "Ġadult": 5080,
      "Ġunknown": 5081,
      "Ġtweet": 5082,
      "Ġattempt": 5083,
      "Ġagree": 5084,
      "Ġdepression": 5085,
      "ĠEnh": 5086,
      "Ġviews": 5087,
      "Ġkitchen": 5088,
      "cery": 5089,
      "Ġsere": 5090,
      "Ġfile": 5091,
      "uries": 5092,
      "Ġspin": 5093,
      "Ġwear": 5094,
      "Ġflight": 5095,
      "Ġparticles": 5096,
      "Ġreaching": 5097,
      "Ġrecommended": 5098,
      "Ġstatistical": 5099,
      "Ġincredible": 5100,
      "numbers": 5101,
      "Ġperspective": 5102,
      "Ġprinciple": 5103,
      "Ġstret": 5104,
      "ressive": 5105,
      "umber": 5106,
      "abetes": 5107,
      "Ġcollege": 5108,
      "late": 5109,
      "Ġunex": 5110,
      "key": 5111,
      "Ġgoes": 5112,
      "Ġpursu": 5113,
      "poses": 5114,
      "Ġdetection": 5115,
      "Ġtomatoes": 5116,
      "ĠAccess": 5117,
      "Ġviol": 5118,
      "Ġunable": 5119,
      "Ġensures": 5120,
      "Ġauthent": 5121,
      "Ġstructured": 5122,
      "Ġbasket": 5123,
      "Ġturned": 5124,
      "Ġolive": 5125,
      "Ġreve": 5126,
      "Ġisol": 5127,
      "Ġends": 5128,
      "Ġride": 5129,
      "Ġclouds": 5130,
      "Ġunw": 5131,
      "ĠStay": 5132,
      "Ġflood": 5133,
      "Ġfunctionality": 5134,
      "Ġreader": 5135,
      "Ġaffected": 5136,
      "Ġwatching": 5137,
      "agonist": 5138,
      "Script": 5139,
      "cious": 5140,
      "des": 5141,
      "oom": 5142,
      "top": 5143,
      "Ġfiber": 5144,
      "ĠAre": 5145,
      "ĠFace": 5146,
      "Ġunits": 5147,
      "ĠUnion": 5148,
      "Ġswim": 5149,
      "Ġclearly": 5150,
      "Ġprimarily": 5151,
      "ĠPractice": 5152,
      "uge": 5153,
      "Ġmaster": 5154,
      "Ġresil": 5155,
      "ĠPlace": 5156,
      "Ġcontinuous": 5157,
      "Ġmistakes": 5158,
      "Ġpic": 5159,
      "Ġlater": 5160,
      "Ġforces": 5161,
      "Ġstaff": 5162,
      "ief": 5163,
      "Ġnothing": 5164,
      "Ġbrings": 5165,
      "Ġvisualization": 5166,
      "Ġapplied": 5167,
      "Ġopposite": 5168,
      "td": 5169,
      "iny": 5170,
      "ustling": 5171,
      "Ġappoint": 5172,
      "Ġcoll": 5173,
      "Ġtrend": 5174,
      "Ġinvesting": 5175,
      "Ġminimum": 5176,
      "Ġtalk": 5177,
      "minist": 5178,
      "Ġgolden": 5179,
      "Ġprepared": 5180,
      "Ġimmediately": 5181,
      "Ġstir": 5182,
      "Ġhair": 5183,
      "Ġround": 5184,
      "Ġnoise": 5185,
      "Ġuncertain": 5186,
      "ĠMicrosoft": 5187,
      "Rem": 5188,
      "heit": 5189,
      "arks": 5190,
      "ateful": 5191,
      "Ġongoing": 5192,
      "Ġpron": 5193,
      "Ġspecifically": 5194,
      "Ġpurposes": 5195,
      "elsius": 5196,
      "Ġtargeted": 5197,
      "Ġbreakfast": 5198,
      "Ġsurvival": 5199,
      "Ġcalls": 5200,
      "anish": 5201,
      "Ġreaction": 5202,
      "Ġnarr": 5203,
      "ĠAust": 5204,
      "hern": 5205,
      "ĠProduct": 5206,
      "Ġmillions": 5207,
      "Ġshapes": 5208,
      "hetic": 5209,
      "99": 5210,
      "eter": 5211,
      "ĠTime": 5212,
      "Ġintense": 5213,
      "renheit": 5214,
      "Ġpollut": 5215,
      "Ġpromotes": 5216,
      "ahrenheit": 5217,
      "Ġseemed": 5218,
      "lobal": 5219,
      "Ġbank": 5220,
      "used": 5221,
      "ushing": 5222,
      "Ġseamless": 5223,
      "asters": 5224,
      "ĠNLP": 5225,
      "Ġheadline": 5226,
      "Ġstyles": 5227,
      "Ġsatisfied": 5228,
      "year": 5229,
      "usiness": 5230,
      "Ġexcess": 5231,
      "Ġdeforest": 5232,
      "orest": 5233,
      "Ġinstru": 5234,
      "Ġclassroom": 5235,
      "Ġhimself": 5236,
      "Ġimplemented": 5237,
      "Chor": 5238,
      "Ġsaving": 5239,
      "Ġherself": 5240,
      "Ġvacation": 5241,
      "Ġcolleag": 5242,
      "iant": 5243,
      "Ġcher": 5244,
      "Ġinh": 5245,
      "ĠSQL": 5246,
      "anted": 5247,
      "udd": 5248,
      "---": 5249,
      "Ġdoor": 5250,
      "Ġrepe": 5251,
      "Ġimplementation": 5252,
      "Ġinfluen": 5253,
      "Ġtaxes": 5254,
      "Ġchatbots": 5255,
      "Ġangle": 5256,
      "Ġdeforestation": 5257,
      "Em": 5258,
      "inc": 5259,
      "Ġhom": 5260,
      "raw": 5261,
      "Ġadopt": 5262,
      "Ġserved": 5263,
      "Ġthank": 5264,
      "Ġoperation": 5265,
      "Ġpractical": 5266,
      "Ġdangerous": 5267,
      "Chorus": 5268,
      "40": 5269,
      "://": 5270,
      "mission": 5271,
      "Ġcrypt": 5272,
      "Ġdance": 5273,
      "Ġkil": 5274,
      "avors": 5275,
      "ĠUp": 5276,
      "Ġhappen": 5277,
      "Ġincredibly": 5278,
      "cl": 5279,
      "Ġrom": 5280,
      "Ġpsych": 5281,
      "ĠTheir": 5282,
      "Ġteaching": 5283,
      "Ġmanager": 5284,
      "Ġmemor": 5285,
      "Ġrepresentative": 5286,
      "Ġparameters": 5287,
      "Ġmovements": 5288,
      "Ġsuccessfully": 5289,
      "Ġsupplies": 5290,
      "ĠPeople": 5291,
      "Ġ>": 5292,
      "Ġturning": 5293,
      "Ġburning": 5294,
      "lee": 5295,
      "result": 5296,
      "ured": 5297,
      "ĠRom": 5298,
      "Ġsolid": 5299,
      "Ġsensors": 5300,
      "Ġcircum": 5301,
      "Ġmountains": 5302,
      "Ġfamilies": 5303,
      "Develop": 5304,
      "itutions": 5305,
      "Ġspam": 5306,
      "ĠEmma": 5307,
      "ĠBuild": 5308,
      "ĠUltimately": 5309,
      "Ġsettings": 5310,
      "ĠProt": 5311,
      "Ġswitch": 5312,
      "Ġmotivated": 5313,
      "ĠAir": 5314,
      "ĠDNA": 5315,
      "Ġcolon": 5316,
      "Ġaddressing": 5317,
      "ĠMonitor": 5318,
      "ĠJavaScript": 5319,
      "Ġaffordable": 5320,
      "orter": 5321,
      "ĠParis": 5322,
      "Ġrepet": 5323,
      "].": 5324,
      "right": 5325,
      "Ġglow": 5326,
      "raction": 5327,
      "Ġuns": 5328,
      "Ġprocessed": 5329,
      "Ġdiabetes": 5330,
      "Ġcapac": 5331,
      "Ġeco": 5332,
      "Ġanti": 5333,
      "inating": 5334,
      "Ġsizes": 5335,
      "Ġdeals": 5336,
      "Ġelimin": 5337,
      "elihood": 5338,
      "Ġboy": 5339,
      "otal": 5340,
      "ays": 5341,
      "ĠRen": 5342,
      "ryption": 5343,
      "rency": 5344,
      "ĠConf": 5345,
      "Ġscenario": 5346,
      "AR": 5347,
      "EO": 5348,
      "Rec": 5349,
      "fall": 5350,
      "Ġsod": 5351,
      "Ġliqu": 5352,
      "Ġsuff": 5353,
      "aks": 5354,
      "ĠOpt": 5355,
      "Ġphilos": 5356,
      "Ġbreaking": 5357,
      "Ġshowing": 5358,
      "Ġnutrition": 5359,
      "Ġtechnological": 5360,
      "Ġbrowser": 5361,
      "ĠSmart": 5362,
      "Ġcoding": 5363,
      "Ġprofessionals": 5364,
      "Friend": 5365,
      "ira": 5366,
      "Ġrein": 5367,
      "idential": 5368,
      "Ġacid": 5369,
      "ĠNot": 5370,
      "Ġrace": 5371,
      "ĠExper": 5372,
      "Ġmotivation": 5373,
      "Ġcolumns": 5374,
      "Ġunexpected": 5375,
      "pread": 5376,
      "rs": 5377,
      "input": 5378,
      "Ġmap": 5379,
      "Ġseeds": 5380,
      "Ġarticles": 5381,
      "Ġprofit": 5382,
      "ĠEmp": 5383,
      "Ġtablespoons": 5384,
      "Ġincentives": 5385,
      "Ġinquir": 5386,
      "oe": 5387,
      "Ġcrow": 5388,
      "Ġcounter": 5389,
      "isis": 5390,
      "Ġinj": 5391,
      "ĠTry": 5392,
      "umes": 5393,
      "Ġintelligent": 5394,
      "Ġadds": 5395,
      "ĠGood": 5396,
      "Ġspeaking": 5397,
      "Ġmoments": 5398,
      "Ġlikelihood": 5399,
      "Ġcomparison": 5400,
      "free": 5401,
      "leg": 5402,
      "Ġhero": 5403,
      "asted": 5404,
      "Ġarms": 5405,
      "Ġsurpr": 5406,
      "Ġentreprene": 5407,
      "Ġprofound": 5408,
      "Ġslightly": 5409,
      "Ġappreciate": 5410,
      "Ġfur": 5411,
      "entral": 5412,
      "Ġrewards": 5413,
      "Ġstability": 5414,
      "Ġshift": 5415,
      "ĠBel": 5416,
      "Ġjud": 5417,
      "Ġconsists": 5418,
      "Ġhowever": 5419,
      "Ġsociet": 5420,
      "Ġmetrics": 5421,
      "egin": 5422,
      "Ġelectronic": 5423,
      "Ġcurrently": 5424,
      "Ġopening": 5425,
      "Ġgrass": 5426,
      "ĠAtt": 5427,
      "ĠReduce": 5428,
      "Ġjoin": 5429,
      "bra": 5430,
      "tps": 5431,
      "Ġdeeper": 5432,
      "Ġplenty": 5433,
      "asting": 5434,
      "ĠFind": 5435,
      "ĠOther": 5436,
      "Ġhandling": 5437,
      "Ġbias": 5438,
      "Ġautomate": 5439,
      "Ġjuice": 5440,
      "Ġcorrespond": 5441,
      "100": 5442,
      "iter": 5443,
      "Ġpick": 5444,
      "Ġdol": 5445,
      "Ġrent": 5446,
      "Ġthus": 5447,
      "Ġnational": 5448,
      "Ġchocolate": 5449,
      "Ġequival": 5450,
      "Ġmusical": 5451,
      "Ġstanding": 5452,
      "Ġgrateful": 5453,
      "Ġdialogue": 5454,
      "phant": 5455,
      "cules": 5456,
      "Ġemergency": 5457,
      "Ġsandw": 5458,
      "fl": 5459,
      "oors": 5460,
      "water": 5461,
      "Ġcancer": 5462,
      "Ġvoc": 5463,
      "Ġsharp": 5464,
      "Ġdiffer": 5465,
      "lla": 5466,
      "Ġowners": 5467,
      "Ġbuying": 5468,
      "Ġwomen": 5469,
      "Ġconvenience": 5470,
      "Ġgrocery": 5471,
      "Ġestimated": 5472,
      "gy": 5473,
      "ato": 5474,
      "ishing": 5475,
      "Ġinstruction": 5476,
      "Ġfoundation": 5477,
      "Ġcolorful": 5478,
      "Ġlooked": 5479,
      "Ġaccordingly": 5480,
      "Ġbeliefs": 5481,
      "200": 5482,
      "Ġmicro": 5483,
      "ifies": 5484,
      "Ġblank": 5485,
      "ĠVirtual": 5486,
      "ĠWithout": 5487,
      "Ġdoesn": 5488,
      "can": 5489,
      "ler": 5490,
      "Ġchosen": 5491,
      "Ġpresented": 5492,
      "Ġpromotions": 5493,
      "Ġstraw": 5494,
      "ĠFacebook": 5495,
      "80": 5496,
      "iforn": 5497,
      "Ġcompass": 5498,
      "Ġleadership": 5499,
      "Ġstudies": 5500,
      "Ġindustrial": 5501,
      "Ġvegetable": 5502,
      "Ġcontaining": 5503,
      "ĠCelsius": 5504,
      "ĠMain": 5505,
      "ĠBen": 5506,
      "ĠBra": 5507,
      "Ġclick": 5508,
      "Ġinstitutions": 5509,
      "ĠSpanish": 5510,
      "Ġremaining": 5511,
      "Ġdiagnosis": 5512,
      "Ġencourages": 5513,
      "Ġmolecules": 5514,
      "ok": 5515,
      "reg": 5516,
      "ĠCreat": 5517,
      "ĠOpen": 5518,
      "Ġquiet": 5519,
      "Ġcoop": 5520,
      "ĠYes": 5521,
      "herent": 5522,
      "Ġforever": 5523,
      "Ġrestrict": 5524,
      "Ġrealistic": 5525,
      "Ġinterested": 5526,
      "Ġcriteria": 5527,
      "Ġkindness": 5528,
      "Ġsurrounded": 5529,
      "holders": 5530,
      "Ġetc": 5531,
      "Ġframew": 5532,
      "ifornia": 5533,
      "89": 5534,
      "point": 5535,
      "erts": 5536,
      "iments": 5537,
      "imens": 5538,
      "Ġiter": 5539,
      "ĠSir": 5540,
      "though": 5541,
      "Ġplaced": 5542,
      "Ġresolution": 5543,
      "Ġcarp": 5544,
      "vironments": 5545,
      "Ġeveryday": 5546,
      "Ġchopped": 5547,
      "html": 5548,
      "Ġhabitat": 5549,
      "Ġlinked": 5550,
      "ĠAfrica": 5551,
      "rew": 5552,
      "Ġsad": 5553,
      "ansion": 5554,
      "Ġsimilarities": 5555,
      "Ġastron": 5556,
      "vision": 5557,
      "Ġmother": 5558,
      "ctic": 5559,
      "Ġreduction": 5560,
      "forcement": 5561,
      "inate": 5562,
      "atile": 5563,
      "ison": 5564,
      "Ġfer": 5565,
      "Ġinse": 5566,
      "umn": 5567,
      "Ġsupporting": 5568,
      "Ġreaders": 5569,
      "idespread": 5570,
      "Ġmilitary": 5571,
      "Ġintroduced": 5572,
      "Ġdescribed": 5573,
      "Ġrevolutionized": 5574,
      "iers": 5575,
      "Ġforget": 5576,
      "Ġshad": 5577,
      "asts": 5578,
      "Ġclaim": 5579,
      "ĠNatural": 5580,
      "Ġconsult": 5581,
      "Ġendless": 5582,
      "Ġinputs": 5583,
      "Ġbuildings": 5584,
      "ĠImp": 5585,
      "urthermore": 5586,
      "Ġarrange": 5587,
      "Ġdisplays": 5588,
      "dden": 5589,
      "number": 5590,
      "Ġnormal": 5591,
      "22": 5592,
      "DP": 5593,
      "ey": 5594,
      "Ġwidespread": 5595,
      "Ġbike": 5596,
      "Ġnodes": 5597,
      "Ġalmost": 5598,
      "Ġlocations": 5599,
      "related": 5600,
      "aught": 5601,
      "Sh": 5602,
      "TP": 5603,
      "Ġwider": 5604,
      "Ġment": 5605,
      "stract": 5606,
      "Ġcontract": 5607,
      "ĠWhe": 5608,
      "ĠFollow": 5609,
      "anged": 5610,
      "lick": 5611,
      "Ġimprovements": 5612,
      "Ġbranch": 5613,
      "ptional": 5614,
      "Ġbroken": 5615,
      "Ġempathy": 5616,
      "inter": 5617,
      "organ": 5618,
      "Ġprop": 5619,
      "ifier": 5620,
      "Ġenvironments": 5621,
      "Ġpreprocess": 5622,
      "Ġtreasure": 5623,
      "Ġpurchasing": 5624,
      "Ġhyper": 5625,
      "ĠDefine": 5626,
      "RO": 5627,
      "Verse": 5628,
      "ester": 5629,
      "Ġpizza": 5630,
      "Ġfed": 5631,
      "anes": 5632,
      "Ġbag": 5633,
      "Ġhour": 5634,
      "Ġlies": 5635,
      "ĠTr": 5636,
      "ĠAng": 5637,
      "Ġphysics": 5638,
      "Ġrepresented": 5639,
      "Ġfrequent": 5640,
      "Ġdedicated": 5641,
      "Ġphotosynthesis": 5642,
      "Ġobstacles": 5643,
      "amb": 5644,
      "Ġmoves": 5645,
      "Ġproviders": 5646,
      "Ġdidn": 5647,
      "ae": 5648,
      "iom": 5649,
      "ĉĉ": 5650,
      "hered": 5651,
      "Ġwalls": 5652,
      "Ġnode": 5653,
      "olved": 5654,
      "raid": 5655,
      "Ġclar": 5656,
      "Ġmyster": 5657,
      "Ġgenre": 5658,
      "Ġdividing": 5659,
      "ĠPhys": 5660,
      "Ġmedicine": 5661,
      "Ġ&": 5662,
      "Ġtag": 5663,
      "array": 5664,
      "Ġsudden": 5665,
      "Ġacqu": 5666,
      "Ġpreventing": 5667,
      "ĠManagement": 5668,
      "Ġstreet": 5669,
      "Our": 5670,
      "oad": 5671,
      "itors": 5672,
      "level": 5673,
      "ĠAP": 5674,
      "Ġresolve": 5675,
      "Ġevolution": 5676,
      "Ġfacial": 5677,
      "Ġsustainability": 5678,
      "Ġstatus": 5679,
      "Ġbanking": 5680,
      "Ġquantity": 5681,
      "Ġencouraging": 5682,
      "Ġnumerical": 5683,
      ");": 5684,
      "iture": 5685,
      "Ġmid": 5686,
      "Ġden": 5687,
      "ether": 5688,
      "olute": 5689,
      "Ġstages": 5690,
      "Ġshorter": 5691,
      "pervised": 5692,
      "ĠHis": 5693,
      "Ġdoctors": 5694,
      "Ġbusy": 5695,
      "ĠVe": 5696,
      "ĠPlay": 5697,
      "Ġwanted": 5698,
      "Ġdatasets": 5699,
      "Ġthreats": 5700,
      "ĠEuropean": 5701,
      "Ġfailure": 5702,
      "Ġdiscounts": 5703,
      "lights": 5704,
      "asion": 5705,
      "ĠBar": 5706,
      "Ġraise": 5707,
      "Ġprotocol": 5708,
      "Ġmultip": 5709,
      "Ġpresents": 5710,
      "ĠDeep": 5711,
      "Ġintroduction": 5712,
      "Ġasked": 5713,
      "Ġcrops": 5714,
      "Using": 5715,
      "writ": 5716,
      "ĠBefore": 5717,
      "Ġphrases": 5718,
      "Ġintegers": 5719,
      "Ġclimb": 5720,
      "rist": 5721,
      "ara": 5722,
      "Ġrepair": 5723,
      "ĠConst": 5724,
      "ĠUser": 5725,
      "Ġindicates": 5726,
      "Ġparticipate": 5727,
      "ĠModel": 5728,
      "Ġcandidate": 5729,
      "Some": 5730,
      "bl": 5731,
      "faces": 5732,
      "nal": 5733,
      "ncy": 5734,
      "off": 5735,
      "sum": 5736,
      "ingu": 5737,
      "ĠServe": 5738,
      "ĠFahrenheit": 5739,
      "Ġquote": 5740,
      "Ġpossibilities": 5741,
      "Ġdistractions": 5742,
      "Ġmonthly": 5743,
      "Ġequivalent": 5744,
      "Tw": 5745,
      "anks": 5746,
      "Ġbact": 5747,
      "osure": 5748,
      "ĠGener": 5749,
      "Ġdesire": 5750,
      "Ġactual": 5751,
      "Ġfinds": 5752,
      "Ġjustice": 5753,
      "Ġmultipl": 5754,
      "Ġbillion": 5755,
      "ĠCalifornia": 5756,
      "iking": 5757,
      "Ġisland": 5758,
      "Ġresearc": 5759,
      "Ġperspectives": 5760,
      "Ġempty": 5761,
      ".,": 5762,
      "div": 5763,
      "Ġtrou": 5764,
      "Ġstood": 5765,
      "ĠGu": 5766,
      "ĠGreen": 5767,
      "Ġdesk": 5768,
      "Ġtranslation": 5769,
      "Ġattacks": 5770,
      "Ġmoral": 5771,
      "Ġzero": 5772,
      "Ġcloser": 5773,
      "Ġexpertise": 5774,
      "Sec": 5775,
      "ouns": 5776,
      "Ġdiction": 5777,
      "Ġthor": 5778,
      "Ġascending": 5779,
      "Ġrhy": 5780,
      "Ġformed": 5781,
      "Ġposts": 5782,
      "Ġarrived": 5783,
      "Ġtimeline": 5784,
      "Take": 5785,
      "alysis": 5786,
      "asy": 5787,
      "Ġhoney": 5788,
      "Ġonion": 5789,
      "Ġvia": 5790,
      "ĠCSS": 5791,
      "agram": 5792,
      "Ġcommands": 5793,
      "Ġtruth": 5794,
      "Ġ32": 5795,
      "Ġvegan": 5796,
      "Ġafraid": 5797,
      "Output": 5798,
      "orous": 5799,
      "Ġmention": 5800,
      "ums": 5801,
      "Ġshop": 5802,
      "ĠBegin": 5803,
      "Ġleaders": 5804,
      "Ġbridge": 5805,
      "Ġorganizing": 5806,
      "Ġlongest": 5807,
      "overs": 5808,
      "ĠWeb": 5809,
      "Ġrestaurants": 5810,
      "Ġstick": 5811,
      "urpose": 5812,
      "ament": 5813,
      "ĠPark": 5814,
      "ĠEconom": 5815,
      "Ġcommand": 5816,
      "Ġphones": 5817,
      "Ġcorresponding": 5818,
      "ĠMore": 5819,
      "plete": 5820,
      "Ġunderlying": 5821,
      "Ġworldwide": 5822,
      "ĠCollabor": 5823,
      "Ġbreathing": 5824,
      "Ġstruggle": 5825,
      "Ġretrieve": 5826,
      ")^": 5827,
      "bles": 5828,
      "Ġspot": 5829,
      "agine": 5830,
      "Ġprotagonist": 5831,
      "ropical": 5832,
      "Ġsearching": 5833,
      "exic": 5834,
      "Ġstaying": 5835,
      "AM": 5836,
      "Ġwis": 5837,
      "Ġmouse": 5838,
      "ĠElect": 5839,
      "ĠWind": 5840,
      "ĠOut": 5841,
      "ĠEnvironment": 5842,
      "ĠThank": 5843,
      "Ġimmers": 5844,
      "Ġcontinuously": 5845,
      "Ġselecting": 5846,
      "Ġnuclear": 5847,
      "Ġgravity": 5848,
      "No": 5849,
      "gin": 5850,
      "Ġgift": 5851,
      "Ġgaming": 5852,
      "Ġsuc": 5853,
      "ĠHarry": 5854,
      "Ġclients": 5855,
      "Ġqueries": 5856,
      "ĠTherefore": 5857,
      "Ġweeks": 5858,
      "Ġreflects": 5859,
      "Ġreferred": 5860,
      "Am": 5861,
      "body": 5862,
      "equ": 5863,
      "px": 5864,
      "table": 5865,
      "Ġwit": 5866,
      "ceans": 5867,
      "ĠRome": 5868,
      "ipitation": 5869,
      "ercise": 5870,
      "However": 5871,
      "Ġconsistently": 5872,
      "Ġpacked": 5873,
      "Ġillustr": 5874,
      "Ġdivis": 5875,
      "Ġthrive": 5876,
      "Ġguidelines": 5877,
      "ĠâĪ": 5878,
      "Ġregardless": 5879,
      "Ġhonest": 5880,
      "ĠEducation": 5881,
      "Ġdiscrimination": 5882,
      "Ġliquid": 5883,
      "Un": 5884,
      "rots": 5885,
      "Ġnative": 5886,
      "ocking": 5887,
      "Ġcomposed": 5888,
      "Ġprogrammed": 5889,
      "Ġnuts": 5890,
      "Ġscheme": 5891,
      "Ġincorporating": 5892,
      "lor": 5893,
      "Ġbear": 5894,
      "ĠCustom": 5895,
      "rome": 5896,
      "Ġjump": 5897,
      "Ġtimely": 5898,
      "Ġmedian": 5899,
      "Ġflavors": 5900,
      "Ġ2019": 5901,
      "Ġmessaging": 5902,
      "Ġconflicts": 5903,
      "Ġcutting": 5904,
      "Ġsplit": 5905,
      "Ġpersuasive": 5906,
      "Are": 5907,
      "la": 5908,
      "rets": 5909,
      "Ġsess": 5910,
      "Ġbad": 5911,
      "Ġreb": 5912,
      "ĠBusiness": 5913,
      "ĠWork": 5914,
      "Ġrob": 5915,
      "Ġfloor": 5916,
      "Ġmath": 5917,
      "ĠEngine": 5918,
      "Ġindicate": 5919,
      "Ġslowly": 5920,
      "Ġincorporate": 5921,
      "Ġpunctu": 5922,
      "Ġbirthday": 5923,
      "Ġspirit": 5924,
      "Ġpollutants": 5925,
      "Ġcolleagues": 5926,
      "('": 5927,
      "Data": 5928,
      "Ġcart": 5929,
      "Ġfats": 5930,
      "Ġreaches": 5931,
      "Ġchecking": 5932,
      "Ġpassing": 5933,
      "Ġ60": 5934,
      "Ġ//": 5935,
      "Ġprecision": 5936,
      "Ġnearby": 5937,
      "Ġsmartphones": 5938,
      "Ġsliced": 5939,
      "OS": 5940,
      "Ġfilling": 5941,
      "ĠII": 5942,
      "Ġdisasters": 5943,
      "Ġsold": 5944,
      "Ġsigns": 5945,
      "Ġ40": 5946,
      "Ġsignificance": 5947,
      "ĠEnjoy": 5948,
      "Ġsubt": 5949,
      "Ġinfluenc": 5950,
      "Ġvillagers": 5951,
      "Ġrainforest": 5952,
      "Ġtailored": 5953,
      "Ġvitamins": 5954,
      "Ġcash": 5955,
      "Ġnest": 5956,
      "othes": 5957,
      "Ġalph": 5958,
      "ppers": 5959,
      "umbled": 5960,
      "Ġproductive": 5961,
      "Ġamazing": 5962,
      "berries": 5963,
      "Ġ199": 5964,
      "Ġscientist": 5965,
      "Ġvacc": 5966,
      "ameter": 5967,
      "Ġcommitment": 5968,
      "Ġexhib": 5969,
      "Ġyoga": 5970,
      "Ġsusp": 5971,
      "Ġhorizon": 5972,
      "cies": 5973,
      "ios": 5974,
      "part": 5975,
      "orial": 5976,
      "Ġadminist": 5977,
      "Ġconsidering": 5978,
      "Ġcombine": 5979,
      "Ġexcited": 5980,
      "Ġmarine": 5981,
      "Ġparticipants": 5982,
      "Ġguidance": 5983,
      "ĠMarketing": 5984,
      "Ġinfluenced": 5985,
      "eed": 5986,
      "ene": 5987,
      "Ġhit": 5988,
      "Ġhob": 5989,
      "Ġpricing": 5990,
      "Ġhealthier": 5991,
      "Ġforeign": 5992,
      "Ġconstruction": 5993,
      "Ġenjoyable": 5994,
      "Ġdatabases": 5995,
      "Ġcollaborate": 5996,
      "Sub": 5997,
      "lin": 5998,
      "ĠÂ": 5999,
      "Ġwish": 6000,
      "Ġwants": 6001,
      "Ġbeat": 6002,
      "Ġhes": 6003,
      "aby": 6004,
      "ĠĠĠĠĠĠĠĠĠĠ": 6005,
      "Ġevening": 6006,
      "Ġknowing": 6007,
      "Ġpredicting": 6008,
      "Ġstands": 6009,
      "Ġexperiencing": 6010,
      "Ġlegs": 6011,
      "Ġtransformed": 6012,
      "Ġsurvive": 6013,
      "Ġunderg": 6014,
      "Ġelectronics": 6015,
      "Ġwave": 6016,
      "Ġheating": 6017,
      "ighter": 6018,
      "Ġarise": 6019,
      "Ġdecl": 6020,
      "rown": 6021,
      "ftware": 6022,
      "Ġdesigns": 6023,
      "Ġcalories": 6024,
      "Ġequipped": 6025,
      "Ġobjective": 6026,
      "ĠâĢĺ": 6027,
      "Ġdifficulty": 6028,
      "Ġcollecting": 6029,
      "Since": 6030,
      "fol": 6031,
      "Ġselling": 6032,
      "inger": 6033,
      "Ġwidth": 6034,
      "alian": 6035,
      "edia": 6036,
      "Ġhur": 6037,
      "rays": 6038,
      "ĠAb": 6039,
      "Ġlemon": 6040,
      "ĠUnderstand": 6041,
      "Ġplanets": 6042,
      "Ġcorner": 6043,
      "Ġcapability": 6044,
      "Ġpopularity": 6045,
      "Ġcontributions": 6046,
      "ĠCanada": 6047,
      "Ġhousehold": 6048,
      "Ġseems": 6049,
      "Ġdelivering": 6050,
      "Ġfarming": 6051,
      "Ġcapacity": 6052,
      "cons": 6053,
      "clusion": 6054,
      "rest": 6055,
      "Ġburn": 6056,
      "icit": 6057,
      "roid": 6058,
      "que": 6059,
      "Ġincorrect": 6060,
      "ĠLim": 6061,
      "ĠItalian": 6062,
      "Ġdriven": 6063,
      "Ġcleaner": 6064,
      "Ġpaint": 6065,
      "Ġperiods": 6066,
      "Ġprecipitation": 6067,
      "Ġfixed": 6068,
      "ĠÃĹ": 6069,
      "Ġpercentage": 6070,
      "RL": 6071,
      "do": 6072,
      "inst": 6073,
      "atur": 6074,
      "Ġhosp": 6075,
      "ection": 6076,
      "employment": 6077,
      "ĠDisc": 6078,
      "Ġunne": 6079,
      "ĠUtil": 6080,
      "Ġconserve": 6081,
      "Ġcharge": 6082,
      "Ġanalog": 6083,
      "Ġtexture": 6084,
      "Ġdepict": 6085,
      "Ġbattle": 6086,
      "Ġshaping": 6087,
      "Let": 6088,
      "page": 6089,
      "Ġbit": 6090,
      "ĠAnt": 6091,
      "Ġmeant": 6092,
      "Ġworkout": 6093,
      "ĠAdv": 6094,
      "Ġcrime": 6095,
      "Ġcrisis": 6096,
      "Ġfewer": 6097,
      "Ġengineer": 6098,
      "Ġavoiding": 6099,
      "Ġreminder": 6100,
      "Ġpublished": 6101,
      "Ġpicnic": 6102,
      "65": 6103,
      "Ġoceans": 6104,
      "Ġwings": 6105,
      "Ġbodies": 6106,
      "Ġfeat": 6107,
      "Ġincluded": 6108,
      "Ġoverview": 6109,
      "Ġreports": 6110,
      "ommod": 6111,
      "Ġsalad": 6112,
      "Ġpaid": 6113,
      "icking": 6114,
      "ching": 6115,
      "uling": 6116,
      "ĠSur": 6117,
      "ĠEnd": 6118,
      "ĠMexic": 6119,
      "ĠInvest": 6120,
      "Ġdecimal": 6121,
      "Ġskilled": 6122,
      "urniture": 6123,
      "Ġedges": 6124,
      "author": 6125,
      "ossible": 6126,
      "Ġmuse": 6127,
      "Ġenhancing": 6128,
      "Ġlaughter": 6129,
      "heat": 6130,
      "Ġcomparing": 6131,
      "Ġdisapp": 6132,
      "Ġ21": 6133,
      "Ġproduces": 6134,
      "Ġproducing": 6135,
      "Ġartist": 6136,
      "Ġsmallest": 6137,
      "Ġsecret": 6138,
      "Ġexercises": 6139,
      "Ġwaiting": 6140,
      "ugging": 6141,
      "connected": 6142,
      "Ġdisadvantages": 6143,
      "Sp": 6144,
      "Ġdiced": 6145,
      "Ġly": 6146,
      "uting": 6147,
      "Ġquite": 6148,
      "Ġenvironmentally": 6149,
      "ĠProv": 6150,
      "ĠAlso": 6151,
      "Ġhousing": 6152,
      "Ġmemorable": 6153,
      "ipl": 6154,
      "Ġfly": 6155,
      "alle": 6156,
      "ĠNext": 6157,
      "Ġdecline": 6158,
      "Ġinquiries": 6159,
      "Ġthorough": 6160,
      "orge": 6161,
      "Ġht": 6162,
      "ĠPlease": 6163,
      "Ġunit": 6164,
      "Ġregulate": 6165,
      "Ġgrown": 6166,
      "ĠIndust": 6167,
      "ĠIndian": 6168,
      "Ġstatistics": 6169,
      "Ġmassive": 6170,
      "Ġestablished": 6171,
      "ĠDevelopment": 6172,
      "Ġadjective": 6173,
      "reed": 6174,
      "racy": 6175,
      "Ġstoring": 6176,
      "eling": 6177,
      "ĠCould": 6178,
      "ĠBr": 6179,
      "Ġunlike": 6180,
      "Ġvisibility": 6181,
      "Ġchecks": 6182,
      "Ġfaces": 6183,
      "Ġflower": 6184,
      "Ġseconds": 6185,
      "Ġadventures": 6186,
      "Ġradius": 6187,
      "Ġstreaming": 6188,
      "Ġdomain": 6189,
      "Ġtablespoon": 6190,
      "Ġinventory": 6191,
      "Ġiconic": 6192,
      "Ġdistributed": 6193,
      "Ġconcentration": 6194,
      "world": 6195,
      "Ġtom": 6196,
      "Ġdense": 6197,
      "Ġchair": 6198,
      "ipe": 6199,
      "Ġdispos": 6200,
      "Ġroots": 6201,
      "Ġraw": 6202,
      "Ġopened": 6203,
      "Ġelectrons": 6204,
      "ĠGovernments": 6205,
      "According": 6206,
      "Ġpush": 6207,
      "Ġdro": 6208,
      "Ġep": 6209,
      "Ġgently": 6210,
      "igital": 6211,
      "unte": 6212,
      "ĠMin": 6213,
      "ĠMoon": 6214,
      "Ġlists": 6215,
      "Ġvisible": 6216,
      "Ġexplanation": 6217,
      "Ġglob": 6218,
      "Ġaffects": 6219,
      "Ġsurroundings": 6220,
      "Ġstreets": 6221,
      "Ġelectrical": 6222,
      "Ġpicture": 6223,
      "title": 6224,
      "Ġlose": 6225,
      "otic": 6226,
      "Ġinches": 6227,
      "ĠMars": 6228,
      "ĠResp": 6229,
      "Ġwhose": 6230,
      "Ġofficial": 6231,
      "Ġreverse": 6232,
      "Ġinsurance": 6233,
      "Ġlandm": 6234,
      "roduce": 6235,
      "Ġenjoying": 6236,
      "Ġimmune": 6237,
      "Ġtransparent": 6238,
      "Ġpuzzle": 6239,
      "ĠAutom": 6240,
      "++": 6241,
      "anqu": 6242,
      "Ġvict": 6243,
      "Ġweights": 6244,
      "Ġinterpre": 6245,
      "Ġmetal": 6246,
      "Ġstatements": 6247,
      "inkle": 6248,
      "Ġemployment": 6249,
      "Ġdigest": 6250,
      "Ġindicating": 6251,
      "Ġbarri": 6252,
      "Artificial": 6253,
      "Ġturns": 6254,
      "Ġlush": 6255,
      "Ġspelling": 6256,
      "ĠDetermine": 6257,
      "Ġdespite": 6258,
      "Ġpersonality": 6259,
      "Ġexposure": 6260,
      "Ġpotatoes": 6261,
      "Ġpasswords": 6262,
      "ĠAnalysis": 6263,
      "ĠExercise": 6264,
      "ĠRemember": 6265,
      "Ġinequality": 6266,
      "Ġescape": 6267,
      "ĠProcessing": 6268,
      "authorized": 6269,
      ")/": 6270,
      "Ġwall": 6271,
      "Ġhop": 6272,
      "ĠTrue": 6273,
      "ately": 6274,
      "ĠMount": 6275,
      "Ġupcoming": 6276,
      "angered": 6277,
      "Ġtransmit": 6278,
      "Ġdownload": 6279,
      "ĠEmploy": 6280,
      "Ġdependent": 6281,
      "Ġidiom": 6282,
      "Ġreputation": 6283,
      "Ġphenomenon": 6284,
      "Ġ:": 6285,
      "Ġreactions": 6286,
      "ĠSk": 6287,
      "Ġcompan": 6288,
      "ĠBat": 6289,
      "Ġclus": 6290,
      "Ġunauthorized": 6291,
      "Ġimproves": 6292,
      "Ġamb": 6293,
      "Ġtypical": 6294,
      "Therefore": 6295,
      "Ġindependence": 6296,
      "ĠAfrican": 6297,
      "ĠTwitter": 6298,
      "au": 6299,
      "inates": 6300,
      "uration": 6301,
      "Ġvote": 6302,
      "endar": 6303,
      "Ġages": 6304,
      "Ġcorpor": 6305,
      "Ġmatches": 6306,
      "Ġtests": 6307,
      "Ġinspire": 6308,
      "ophistic": 6309,
      "Ġrows": 6310,
      "semb": 6311,
      "Ġdescriptive": 6312,
      "Ġsandwich": 6313,
      "Second": 6314,
      "Ġunnecessary": 6315,
      "Select": 6316,
      "Te": 6317,
      "mer": 6318,
      "erals": 6319,
      "rot": 6320,
      "Ġthin": 6321,
      "Ġstake": 6322,
      "igration": 6323,
      "Ġabstract": 6324,
      "Ġcompleting": 6325,
      "ondon": 6326,
      "Ġmeetings": 6327,
      "Ġautonomous": 6328,
      "Ġresilience": 6329,
      "ĠOptim": 6330,
      "Res": 6331,
      "iam": 6332,
      "Ġsending": 6333,
      "Ġbot": 6334,
      "vered": 6335,
      "rams": 6336,
      "ĠAug": 6337,
      "ocado": 6338,
      "obile": 6339,
      "ancy": 6340,
      "Ġrepeat": 6341,
      "Ġflat": 6342,
      "Ġvector": 6343,
      "Ġdevast": 6344,
      "Ġautomated": 6345,
      "Ġdivide": 6346,
      "ED": 6347,
      "Pl": 6348,
      "craft": 6349,
      "wh": 6350,
      "Ġcos": 6351,
      "Ġmouth": 6352,
      "Ġeager": 6353,
      "osion": 6354,
      "Ġdrinks": 6355,
      "Ġcombat": 6356,
      "verse": 6357,
      "ĠPlant": 6358,
      "Ġmuscle": 6359,
      "ias": 6360,
      "aked": 6361,
      "Ġspo": 6362,
      "ĠPour": 6363,
      "ogether": 6364,
      "ĠOcean": 6365,
      "Ġrelatively": 6366,
      "Ġanticip": 6367,
      "Ġclosely": 6368,
      "rich": 6369,
      "vable": 6370,
      "Ġtut": 6371,
      "Ġslee": 6372,
      "Ġpul": 6373,
      "ales": 6374,
      "Ġtold": 6375,
      "Ġstead": 6376,
      "Ġvent": 6377,
      "ophy": 6378,
      "Ġatoms": 6379,
      "Ġprem": 6380,
      "Ġspecified": 6381,
      "Ġtalking": 6382,
      "Ġdescribing": 6383,
      "Change": 6384,
      "Ġinitiatives": 6385,
      "Ġcircumst": 6386,
      "ĠWhether": 6387,
      "ĠConstitution": 6388,
      "gs": 6389,
      "estern": 6390,
      "eted": 6391,
      "Ġkept": 6392,
      "Ġbiases": 6393,
      "Ġminute": 6394,
      "ĠUsers": 6395,
      "Ġfulfill": 6396,
      "Ġprocedures": 6397,
      "Ġvanilla": 6398,
      "onac": 6399,
      "Ġsem": 6400,
      "athered": 6401,
      "Ġfather": 6402,
      "iday": 6403,
      "Ġteen": 6404,
      "astics": 6405,
      "Ġunl": 6406,
      "ĠGr": 6407,
      "Ġflo": 6408,
      "Ġlessons": 6409,
      "Ġcontainer": 6410,
      "Ġroute": 6411,
      "ĠRegularly": 6412,
      "Ġteachers": 6413,
      "Ġliterature": 6414,
      "ĠCommunication": 6415,
      "alaxy": 6416,
      "ĠGreek": 6417,
      "Ġresearchers": 6418,
      "Ġdictionary": 6419,
      "backs": 6420,
      "hol": 6421,
      "mber": 6422,
      "Ġsophistic": 6423,
      "Ġdrop": 6424,
      "ĠAccording": 6425,
      "Ġunf": 6426,
      "cont": 6427,
      "ewable": 6428,
      "ĠAnaly": 6429,
      "Ġintegration": 6430,
      "urable": 6431,
      "Ġexpressed": 6432,
      "Ġaims": 6433,
      "Ġsunset": 6434,
      "Ġshelter": 6435,
      "Ġneighbor": 6436,
      "Ġcooperation": 6437,
      "')": 6438,
      "gent": 6439,
      "ĠCat": 6440,
      "ĠRel": 6441,
      "ibonac": 6442,
      "Ġtrig": 6443,
      "Ġaccommod": 6444,
      "Ġdelight": 6445,
      "Ġmatrix": 6446,
      "onyms": 6447,
      "Ġintroduce": 6448,
      "Ġboundaries": 6449,
      "ibonacci": 6450,
      "che": 6451,
      "Ġpets": 6452,
      "arter": 6453,
      "icy": 6454,
      "ĠAcc": 6455,
      "irect": 6456,
      "Ġactually": 6457,
      "Ġfunctioning": 6458,
      "Ġoptimal": 6459,
      "Ġbelieved": 6460,
      "Ġvalued": 6461,
      "Ġbulbs": 6462,
      "Ġmammals": 6463,
      "LECT": 6464,
      "Sort": 6465,
      "ÏĢ": 6466,
      "Ġiron": 6467,
      "Ġlunch": 6468,
      "import": 6469,
      "ĠAc": 6470,
      "Ġdriver": 6471,
      "ĠReview": 6472,
      "ĠCloud": 6473,
      "Ġcraft": 6474,
      "Ġnucle": 6475,
      "Ġsoul": 6476,
      "Ġsyntax": 6477,
      "Ġfacilitate": 6478,
      "Ġneurons": 6479,
      "Ġkilomet": 6480,
      "Ġtension": 6481,
      "Ġodd": 6482,
      "Ġwise": 6483,
      "Ġwond": 6484,
      "Ġorders": 6485,
      "Ġsegment": 6486,
      "Ġads": 6487,
      "Ġ27": 6488,
      "Ġperp": 6489,
      "Ġinformative": 6490,
      "nsw": 6491,
      "hips": 6492,
      "Ġminerals": 6493,
      "Ġencryption": 6494,
      "Ġruns": 6495,
      "htaking": 6496,
      "ĠCompanies": 6497,
      "Ġmelting": 6498,
      "value": 6499,
      "ĠSmith": 6500,
      "Ġlabeled": 6501,
      "Ġcameras": 6502,
      "Ġreusable": 6503,
      "Ġfalls": 6504,
      "Ġconveys": 6505,
      "abel": 6506,
      "ĠCook": 6507,
      "ocur": 6508,
      "Ġintric": 6509,
      "ĠHy": 6510,
      "ĠList": 6511,
      "Ġhighlights": 6512,
      "Ġgrains": 6513,
      "Ġequations": 6514,
      "venience": 6515,
      "Ġwindow": 6516,
      "orient": 6517,
      "Ġborn": 6518,
      "Ġstocks": 6519,
      "Ġclothes": 6520,
      "Ġintervention": 6521,
      "ĠJane": 6522,
      "Ġequality": 6523,
      "Ġdrink": 6524,
      "Ġextensive": 6525,
      "Ġtraveling": 6526,
      "porary": 6527,
      "Ġminimal": 6528,
      "ĠInteg": 6529,
      "Ġconversion": 6530,
      "Ġbiggest": 6531,
      "Ġsurrounding": 6532,
      "Ġmanufacture": 6533,
      "ĠSecurity": 6534,
      "Ġfoster": 6535,
      "Ġserene": 6536,
      "Ġnarrative": 6537,
      "Ġsucceed": 6538,
      "aze": 6539,
      "ented": 6540,
      "Ġproverb": 6541,
      "ĠSan": 6542,
      "sole": 6543,
      "never": 6544,
      "Ġsupports": 6545,
      "ĠConnect": 6546,
      "ĠExp": 6547,
      "ĠAlice": 6548,
      "Ġdeeply": 6549,
      "Ġdarkness": 6550,
      "Ġrobust": 6551,
      "Ġpunctuation": 6552,
      "Col": 6553,
      "oT": 6554,
      "yl": 6555,
      "Ġsto": 6556,
      "ĠCur": 6557,
      "ĠLondon": 6558,
      "Ġrecovery": 6559,
      "Ġpositions": 6560,
      "Ġpool": 6561,
      "Ġ45": 6562,
      "Ġsummarize": 6563,
      "Ġowner": 6564,
      "Ġsitting": 6565,
      "Ġpasta": 6566,
      "ographics": 6567,
      "Choose": 6568,
      "Ġpictures": 6569,
      "Ġtransparency": 6570,
      "Why": 6571,
      "zen": 6572,
      "Ġtherap": 6573,
      "Ġcry": 6574,
      "Ġpure": 6575,
      "Ġhaz": 6576,
      "Ġrh": 6577,
      "Ġimper": 6578,
      "Ġunemployment": 6579,
      "Ġfunds": 6580,
      "Ġtailor": 6581,
      "Ġemphasis": 6582,
      "Ġdemonstrate": 6583,
      "Ġcircumstances": 6584,
      "ĠEst": 6585,
      "Ġresume": 6586,
      "Ġrecently": 6587,
      "ears": 6588,
      "Ġdoctor": 6589,
      "inese": 6590,
      "Ġshoes": 6591,
      "ĠSelect": 6592,
      "Ġsector": 6593,
      "Ġembrace": 6594,
      "ĠAngel": 6595,
      "Ġfeaturing": 6596,
      "mes": 6597,
      "Ġcube": 6598,
      "Ġwand": 6599,
      "alk": 6600,
      "Ġthous": 6601,
      "Ġbeans": 6602,
      "Ġrat": 6603,
      "Ġcomposition": 6604,
      "ĠURL": 6605,
      "ĠInf": 6606,
      "Ġtranqu": 6607,
      "Ġrequests": 6608,
      "Ġendangered": 6609,
      "ĠScience": 6610,
      "appy": 6611,
      "Ġsorting": 6612,
      "Ġheavily": 6613,
      "Ġweaknesses": 6614,
      "Ġneutral": 6615,
      "Remember": 6616,
      "Can": 6617,
      "Nature": 6618,
      "uit": 6619,
      "yn": 6620,
      "Ġath": 6621,
      "entence": 6622,
      "abit": 6623,
      "Ġshipping": 6624,
      "ruption": 6625,
      "Ġpolar": 6626,
      "Ġelection": 6627,
      "Ġpayments": 6628,
      "Ġdebt": 6629,
      "Ġgrammatically": 6630,
      "ascular": 6631,
      "Ġalphabet": 6632,
      "BC": 6633,
      "Or": 6634,
      "Ġtit": 6635,
      "Ġdu": 6636,
      "Ġcongest": 6637,
      "ĠWill": 6638,
      "ecause": 6639,
      "Ġmanaged": 6640,
      "Ġblocks": 6641,
      "Ġgrace": 6642,
      "Ġedit": 6643,
      "ĠChinese": 6644,
      "Ġcamping": 6645,
      "Ġbreathtaking": 6646,
      "Ġadvertise": 6647,
      "Ġcastle": 6648,
      "Ġattributes": 6649,
      "ĠService": 6650,
      "Ġromantic": 6651,
      "ĠRoman": 6652,
      "67": 6653,
      "Ġdust": 6654,
      "Ġimpossible": 6655,
      "Ġplot": 6656,
      "itely": 6657,
      "Ġdisplace": 6658,
      "ails": 6659,
      "Ġvisiting": 6660,
      "Ġfunctional": 6661,
      "Ġloan": 6662,
      "ycle": 6663,
      "Ġconsume": 6664,
      "Ġhearts": 6665,
      "Ġchemicals": 6666,
      "Ġslices": 6667,
      "Ġmolec": 6668,
      "Ġextremely": 6669,
      "ĠPromot": 6670,
      "Ġcompassion": 6671,
      "class": 6672,
      "oves": 6673,
      "Ġfiction": 6674,
      "Ġfurniture": 6675,
      "rooms": 6676,
      "Ġloud": 6677,
      "Ġspark": 6678,
      "ĠPower": 6679,
      "Ġadop": 6680,
      "ĠMark": 6681,
      "ĠLa": 6682,
      "Ġcareful": 6683,
      "Ġaddressed": 6684,
      "Ġrecycle": 6685,
      "Ġyogurt": 6686,
      "35": 6687,
      "iov": 6688,
      "Ġcin": 6689,
      "ama": 6690,
      "ĠBig": 6691,
      "ĠFalse": 6692,
      "Ġclosed": 6693,
      "ĠLook": 6694,
      "aph": 6695,
      "eek": 6696,
      "ĠArt": 6697,
      "Ġdestro": 6698,
      "Ġsupervised": 6699,
      "Ġgathering": 6700,
      "Ġdouble": 6701,
      "ĠEnhanced": 6702,
      "ROM": 6703,
      "Ġmysterious": 6704,
      "Two": 6705,
      "Sc": 6706,
      "bul": 6707,
      "Ġgathered": 6708,
      "Ġstable": 6709,
      "lude": 6710,
      "Ġslice": 6711,
      "Ġcontributing": 6712,
      "Ġprinter": 6713,
      "ĠCollect": 6714,
      "Ġmixed": 6715,
      "Ġdrawing": 6716,
      "Ġhydro": 6717,
      "Ġoverwhelmed": 6718,
      "Ġpronoun": 6719,
      "Ġstakeholders": 6720,
      "ued": 6721,
      "Ġber": 6722,
      "Ġbonds": 6723,
      "Ġda": 6724,
      "Ġasking": 6725,
      "Ġalive": 6726,
      "Ġdesert": 6727,
      "Ġphase": 6728,
      "iences": 6729,
      "Ġfierce": 6730,
      "Ġtreatments": 6731,
      "Ġreminders": 6732,
      "iovascular": 6733,
      "ein": 6734,
      "oop": 6735,
      "ithm": 6736,
      "Ġteeth": 6737,
      "Ġkm": 6738,
      "ĠHome": 6739,
      "phins": 6740,
      "Ġdevelopments": 6741,
      "Ġperforms": 6742,
      "Ġeconomies": 6743,
      "Ġprofile": 6744,
      "Ġinvestors": 6745,
      "Ġdiscusses": 6746,
      "Ġillness": 6747,
      "ĠCompany": 6748,
      "ĠHuman": 6749,
      "Ġsoda": 6750,
      "Ġinfluencers": 6751,
      "Form": 6752,
      "User": 6753,
      "sert": 6754,
      "uous": 6755,
      "Ġtropical": 6756,
      "Ġaw": 6757,
      "ĠEating": 6758,
      "ĠMat": 6759,
      "Ġfollowers": 6760,
      "ĠJu": 6761,
      "Ġcomplet": 6762,
      "Ġpassive": 6763,
      "Ġaudio": 6764,
      "Ġbanana": 6765,
      "Ġgraphic": 6766,
      "Yes": 6767,
      "tical": 6768,
      "Ġign": 6769,
      "anas": 6770,
      "Ġdensity": 6771,
      "rip": 6772,
      "Ġprovider": 6773,
      "Ġformation": 6774,
      "engers": 6775,
      "Ġkeyword": 6776,
      "Ġdigits": 6777,
      "Ġ90": 6778,
      "Ġvisuals": 6779,
      "Ġrevolutionize": 6780,
      "Ġrolling": 6781,
      "Ġoverwhelming": 6782,
      "Ġrepetitive": 6783,
      ".âĢĿ": 6784,
      "Ġfasc": 6785,
      "Ġalt": 6786,
      "Ġtherefore": 6787,
      "Ġinvestments": 6788,
      "Ġgrid": 6789,
      "Ġcrust": 6790,
      "SELECT": 6791,
      "Ġrepeated": 6792,
      "Ġtomorrow": 6793,
      "rate": 6794,
      "sis": 6795,
      "ĠTrees": 6796,
      "urch": 6797,
      "oday": 6798,
      "Ġcompound": 6799,
      "Ġadm": 6800,
      "ĠDem": 6801,
      "ĠLin": 6802,
      "Ġthereby": 6803,
      "Ġpracticing": 6804,
      "Ġ80": 6805,
      "Ġframe": 6806,
      "Ġdiscussing": 6807,
      "Ġevaluating": 6808,
      "ĠSalt": 6809,
      "ĠPhysical": 6810,
      "oriented": 6811,
      "Ind": 6812,
      "rt": 6813,
      "Ġbustling": 6814,
      "ucose": 6815,
      "Ġperformed": 6816,
      "ructured": 6817,
      "ĠFranc": 6818,
      "()`": 6819,
      "ĠInternational": 6820,
      "gr": 6821,
      "max": 6822,
      "Ġbub": 6823,
      "iratory": 6824,
      "Ġsport": 6825,
      "Ġstrange": 6826,
      "orders": 6827,
      "Ġcovered": 6828,
      "Ġcalendar": 6829,
      "Ġdiscipl": 6830,
      "Ġmanageable": 6831,
      "Ass": 6832,
      "Ġcombines": 6833,
      "Ġnegot": 6834,
      "Ġsecrets": 6835,
      "Through": 6836,
      "Ġselected": 6837,
      "Ġradiation": 6838,
      "Ġadvancement": 6839,
      "rolling": 6840,
      "Ġtelevision": 6841,
      "Ġcopy": 6842,
      "Ġbacteria": 6843,
      "AN": 6844,
      "Ġtick": 6845,
      "arrow": 6846,
      "Ġthrow": 6847,
      "abul": 6848,
      "ĠSub": 6849,
      "ĠPublic": 6850,
      "ĠLife": 6851,
      "Ġmode": 6852,
      "Ġgets": 6853,
      "Ġsunny": 6854,
      "ĠExamples": 6855,
      "Ġargue": 6856,
      "ĠBeing": 6857,
      "Ġpackage": 6858,
      "ĠBlack": 6859,
      "Additionally": 6860,
      "Ġhesit": 6861,
      "inant": 6862,
      "arant": 6863,
      "Ġlooks": 6864,
      "etime": 6865,
      "unk": 6866,
      "Ġcha": 6867,
      "phone": 6868,
      "Ġsmell": 6869,
      "Ġtransaction": 6870,
      "Ġunderst": 6871,
      "Ġexplores": 6872,
      "Ġexplicit": 6873,
      "Ġmining": 6874,
      "ĠChrist": 6875,
      "Ġhappened": 6876,
      "fficiency": 6877,
      "atching": 6878,
      "Ġrespective": 6879,
      "Ġdedication": 6880,
      "Ġimmersive": 6881,
      "Ġpad": 6882,
      "Ġfirm": 6883,
      "veled": 6884,
      "ette": 6885,
      "uning": 6886,
      "Ġmoved": 6887,
      "ĠCap": 6888,
      "ĠClean": 6889,
      "ems": 6890,
      "Ġchances": 6891,
      "Ġseas": 6892,
      "Ġlearns": 6893,
      "Ġinterconnected": 6894,
      "Ġpromin": 6895,
      "Ġentry": 6896,
      "Ġstrategic": 6897,
      "Ġversatile": 6898,
      "Ġalternatives": 6899,
      "Ġmanipulate": 6900,
      "Ġconverting": 6901,
      "24": 6902,
      "Machine": 6903,
      "Ġvert": 6904,
      "Ġvivid": 6905,
      "Ġmanual": 6906,
      "ĠLoc": 6907,
      "Ġoutl": 6908,
      "ĠProf": 6909,
      "ercial": 6910,
      "Ġterrit": 6911,
      "Ġinspired": 6912,
      "Ġintegrated": 6913,
      "Ġvulnerable": 6914,
      "Ġcomplain": 6915,
      "Ġcoastal": 6916,
      "Be": 6917,
      "qrt": 6918,
      "Ġbills": 6919,
      "Ġforg": 6920,
      "Ġlean": 6921,
      "Ġshade": 6922,
      "ĠFood": 6923,
      "Ġhasht": 6924,
      "Ġrab": 6925,
      "Ġaccessed": 6926,
      "Ġcorrel": 6927,
      "Ġachievements": 6928,
      "Ġjournal": 6929,
      "Ġharmony": 6930,
      "Ġpanels": 6931,
      "Ġabsolute": 6932,
      "Ġintegrity": 6933,
      "inch": 6934,
      "izable": 6935,
      "ĠWord": 6936,
      "Ġservers": 6937,
      "Ġexpansion": 6938,
      "hatbot": 6939,
      "Ġpurs": 6940,
      "Ġglucose": 6941,
      "arsh": 6942,
      "Ġprinting": 6943,
      "aneously": 6944,
      "paration": 6945,
      "lands": 6946,
      "Ġmelody": 6947,
      "ĠSoftware": 6948,
      "gramm": 6949,
      "Ġdeadlines": 6950,
      "Ġdepartment": 6951,
      "Ġcarpool": 6952,
      "Ġanalogy": 6953,
      "allel": 6954,
      "Ġfant": 6955,
      "Ġnit": 6956,
      "ĠTim": 6957,
      "stery": 6958,
      "Ġcompost": 6959,
      "ĠRef": 6960,
      "Ġotherwise": 6961,
      "ĠStrong": 6962,
      "Ġdrivers": 6963,
      "Ġguess": 6964,
      "Ġcooling": 6965,
      "Ġlabels": 6966,
      "Ġpenal": 6967,
      "ĠAPI": 6968,
      "Ġmentioned": 6969,
      "Ġrhyth": 6970,
      ".)": 6971,
      "28": 6972,
      "vis": 6973,
      "write": 6974,
      "âĶ": 6975,
      "Ġtough": 6976,
      "oli": 6977,
      "mented": 6978,
      "Ġdealing": 6979,
      "acter": 6980,
      "ĠBan": 6981,
      "Ġdates": 6982,
      "Ġapplying": 6983,
      "ĠGather": 6984,
      "Ġeleg": 6985,
      "Ġreleases": 6986,
      "Ġtried": 6987,
      "Ġwinds": 6988,
      "Ġestimate": 6989,
      "Ġevaluation": 6990,
      "afe": 6991,
      "Ġsaying": 6992,
      "Ġsymbols": 6993,
      "Ġreasoning": 6994,
      "Ġauthentication": 6995,
      "ĠAustral": 6996,
      "sm": 6997,
      "vin": 6998,
      "Ġtast": 6999,
      "itational": 7000,
      "Ġreact": 7001,
      "Ġshif": 7002,
      "ĠMus": 7003,
      "ĠDel": 7004,
      "ĠJune": 7005,
      "Ġmodeling": 7006,
      "Ġoffered": 7007,
      "Ġwellbeing": 7008,
      "Ġinvolving": 7009,
      "Ġguests": 7010,
      "Ġexceptional": 7011,
      "ĠControl": 7012,
      "Ġlabel": 7013,
      "Ġfigures": 7014,
      "Ġpreparing": 7015,
      "Imagine": 7016,
      "www": 7017,
      "ĠEconomic": 7018,
      "Ġcongestion": 7019,
      "abulary": 7020,
      "Fi": 7021,
      "vas": 7022,
      "ĠText": 7023,
      "Ġsuit": 7024,
      "izer": 7025,
      "Ġplastics": 7026,
      "Ġrose": 7027,
      "ĠNations": 7028,
      "Ġworkforce": 7029,
      "Ġrelat": 7030,
      "Ġintroducing": 7031,
      "Ġdestruction": 7032,
      "Ġanswers": 7033,
      "Ġstreamline": 7034,
      "ĠEncoura": 7035,
      "Ġmuscles": 7036,
      "Ġlyrics": 7037,
      "70": 7038,
      "Ġwet": 7039,
      "Ġmer": 7040,
      "Ġinner": 7041,
      "ĠIP": 7042,
      "Ġcompelling": 7043,
      "Ġupper": 7044,
      "Ġdisaster": 7045,
      "Ġstrive": 7046,
      "ĠChange": 7047,
      "ĠUniversity": 7048,
      "Ġtested": 7049,
      "Ġdigit": 7050,
      "Ġcontrolled": 7051,
      "Ġenjoyed": 7052,
      "Ġbasis": 7053,
      "position": 7054,
      "ĠIntroduction": 7055,
      "Ġpackaging": 7056,
      "Ġhydrogen": 7057,
      "nswer": 7058,
      "she": 7059,
      "Ġfem": 7060,
      "ivide": 7061,
      "aker": 7062,
      "ustration": 7063,
      "ruit": 7064,
      "Ġtransl": 7065,
      "Ġblend": 7066,
      "Ġwhereas": 7067,
      "Ġsignal": 7068,
      "Ġpreserving": 7069,
      "Ġearn": 7070,
      "Ġlosses": 7071,
      "Ġdanger": 7072,
      "Ġholds": 7073,
      "Ġdescriptions": 7074,
      "Ġbasketball": 7075,
      "aust": 7076,
      "Ġtang": 7077,
      "ĠTaking": 7078,
      "ownt": 7079,
      "ulf": 7080,
      "ĠPay": 7081,
      "Ġarm": 7082,
      "Ġdecide": 7083,
      "Ġenth": 7084,
      "Ġidentified": 7085,
      "Ġslog": 7086,
      "Ġposter": 7087,
      "ĠComputer": 7088,
      "Ġkilometers": 7089,
      "Ġbell": 7090,
      "akers": 7091,
      "Ġworry": 7092,
      "Ġspr": 7093,
      "Ġexperiments": 7094,
      "Ġsignals": 7095,
      "ĠKnow": 7096,
      "Ġslope": 7097,
      "Ġpreserve": 7098,
      "Ġvolunte": 7099,
      "aws": 7100,
      "Ġholding": 7101,
      "Ġconducting": 7102,
      "Ġobserved": 7103,
      "Ġinstrument": 7104,
      "Ġpursue": 7105,
      "PU": 7106,
      "under": 7107,
      "rely": 7108,
      "ora": 7109,
      "ald": 7110,
      "alled": 7111,
      "rog": 7112,
      "Ġproport": 7113,
      "Ġonions": 7114,
      "Ġmoist": 7115,
      "Ġdeploy": 7116,
      "ĠHar": 7117,
      "They": 7118,
      "ĠDi": 7119,
      "ĠNow": 7120,
      "Ġcarrots": 7121,
      "Ġ500": 7122,
      "Ġarranged": 7123,
      "Ġportion": 7124,
      "ĠKingdom": 7125,
      "Ġspinach": 7126,
      "Ġadoption": 7127,
      "Ġsleek": 7128,
      "Predict": 7129,
      "pie": 7130,
      "Ġow": 7131,
      "ĠClear": 7132,
      "ĠPredict": 7133,
      "ĠBased": 7134,
      "ĠRiver": 7135,
      "Ġclause": 7136,
      "Ġdiss": 7137,
      "Ġconscious": 7138,
      "Ġdeclar": 7139,
      "Ġadvances": 7140,
      "uccess": 7141,
      "Ġrefres": 7142,
      "olden": 7143,
      "ternoon": 7144,
      "Ġadjusting": 7145,
      "Ġcycling": 7146,
      "Ġangles": 7147,
      "Ġemphasizes": 7148,
      "Ġlimitations": 7149,
      "Ġscheduling": 7150,
      "ĠGeorge": 7151,
      "Ġadults": 7152,
      "Ġuncertainty": 7153,
      "Ġsophisticated": 7154,
      "Ġberries": 7155,
      "All": 7156,
      "reaching": 7157,
      "Ġcater": 7158,
      "Ġpiv": 7159,
      "ounce": 7160,
      "Ġlen": 7161,
      "Ġstation": 7162,
      "irds": 7163,
      "ĠSumm": 7164,
      "ĠCr": 7165,
      "ĠCivil": 7166,
      "ĠMem": 7167,
      "ĠWrite": 7168,
      "orem": 7169,
      "Ġwashing": 7170,
      "uality": 7171,
      "âĢ¢": 7172,
      "chnology": 7173,
      "Ġstrict": 7174,
      "Ġaccidents": 7175,
      "Ġrespiratory": 7176,
      "Ġsheet": 7177,
      "Ġadvoc": 7178,
      "portation": 7179,
      "Ġbravery": 7180,
      "Ġresponsive": 7181,
      "Ġmajority": 7182,
      "Ġolder": 7183,
      "ĠInstagram": 7184,
      "ĠContent": 7185,
      "Ġbutterf": 7186,
      "Ġaimed": 7187,
      "Ġmathematics": 7188,
      "ĠRemove": 7189,
      "Ġappreciation": 7190,
      "ĠNeural": 7191,
      "Which": 7192,
      "Ġoccup": 7193,
      "Ġswimming": 7194,
      "ĠAngeles": 7195,
      "aid": 7196,
      "tr": 7197,
      "Ġshining": 7198,
      "Ġteach": 7199,
      "Ġunfor": 7200,
      "Ġcommercial": 7201,
      "Ġexperts": 7202,
      "ritious": 7203,
      "Ġrefine": 7204,
      "Ġretention": 7205,
      "Ġfeels": 7206,
      "Ġdrives": 7207,
      "Ġessence": 7208,
      "Ġlengths": 7209,
      "Ġportfol": 7210,
      "Ġmotivate": 7211,
      "ĠPreheat": 7212,
      "ĠAssistant": 7213,
      "rainstorm": 7214,
      "Ġranking": 7215,
      "Ġwatched": 7216,
      "ĠSolar": 7217,
      "'d": 7218,
      "gers": 7219,
      "net": 7220,
      "Ġwireless": 7221,
      "anu": 7222,
      "Ġband": 7223,
      "izard": 7224,
      "Ġinclusive": 7225,
      "Ġclock": 7226,
      "ĠGlobal": 7227,
      "Ġpartn": 7228,
      "Ġcozy": 7229,
      "Ġfindings": 7230,
      "Ġgrows": 7231,
      "Despite": 7232,
      "ĠAsia": 7233,
      "Ġsquares": 7234,
      "ĠImpact": 7235,
      "understand": 7236,
      "Ġtight": 7237,
      "Ġnation": 7238,
      "Ġgall": 7239,
      "Ġgone": 7240,
      "ulent": 7241,
      "Ġrural": 7242,
      "ĠBreak": 7243,
      "Ġpeppers": 7244,
      "Ġending": 7245,
      "Ġcenturies": 7246,
      "Ġlogic": 7247,
      "Ġdivision": 7248,
      "Ġexpanding": 7249,
      "ĠPotter": 7250,
      "Ġhurric": 7251,
      "Ġcomplaints": 7252,
      "GB": 7253,
      "New": 7254,
      "bre": 7255,
      "Ġtact": 7256,
      "imeter": 7257,
      "Ġstumbled": 7258,
      "Ġench": 7259,
      "ĠHel": 7260,
      "Ġresidents": 7261,
      "Ġ28": 7262,
      "Ġnotable": 7263,
      "ĠState": 7264,
      "Ġcoat": 7265,
      "Ġsimult": 7266,
      "Ġclassical": 7267,
      "Ġfinished": 7268,
      "ĠConduct": 7269,
      "Ġprints": 7270,
      "Ġsubjects": 7271,
      "iku": 7272,
      "Ġoccurred": 7273,
      "Ġturb": 7274,
      "Translate": 7275,
      "Ġatomic": 7276,
      "Ġrectangle": 7277,
      "ĠNetwork": 7278,
      "Ġentrepreneurs": 7279,
      "23": 7280,
      "][": 7281,
      "bits": 7282,
      "Ġlux": 7283,
      "illet": 7284,
      "elcome": 7285,
      "Ġcomments": 7286,
      "ĠID": 7287,
      "ĠBro": 7288,
      "ĠRuss": 7289,
      "Ġaccident": 7290,
      "Ġrefrig": 7291,
      "ĠVal": 7292,
      "Ġsurveys": 7293,
      "Ġconnecting": 7294,
      "Ġdefining": 7295,
      "Ġnetworking": 7296,
      "Ġprotected": 7297,
      "Ġcontainers": 7298,
      "Ġsnack": 7299,
      "Ġassigned": 7300,
      "Ġconverted": 7301,
      "Ġpreferred": 7302,
      "Ġproposed": 7303,
      "ĠBelow": 7304,
      "ĠâĪļ": 7305,
      "Qu": 7306,
      "apping": 7307,
      "reet": 7308,
      "Ġgave": 7309,
      "Ġstro": 7310,
      "Ġvaries": 7311,
      "Ġtech": 7312,
      "Ġ(-": 7313,
      "ints": 7314,
      "gettable": 7315,
      "Ġfinish": 7316,
      "Ġbrush": 7317,
      "Ġediting": 7318,
      "Cont": 7319,
      "Ġpersist": 7320,
      "Ġattractive": 7321,
      "Ġcardiovascular": 7322,
      "Ġstruggling": 7323,
      "Ġqualities": 7324,
      "Ġcryptocur": 7325,
      "Ġsurprise": 7326,
      "Ġintricate": 7327,
      "==": 7328,
      "AT": 7329,
      "Evaluate": 7330,
      "cut": 7331,
      "met": 7332,
      "Ġovers": 7333,
      "Ġtooth": 7334,
      "Ġaside": 7335,
      "ĠCor": 7336,
      "ria": 7337,
      "Ġimpressive": 7338,
      "ĠMult": 7339,
      "Ġ22": 7340,
      "Ġachievable": 7341,
      "Ġdecreased": 7342,
      "driving": 7343,
      "Ġsongs": 7344,
      "Ġfalling": 7345,
      "Ġfarmers": 7346,
      "Ġhosting": 7347,
      "ĠReduced": 7348,
      "gypt": 7349,
      "Ġprotocols": 7350,
      "break": 7351,
      "iance": 7352,
      "Ġinn": 7353,
      "structured": 7354,
      "ĠBay": 7355,
      "ĠWashing": 7356,
      "Ġfees": 7357,
      "Ġunsu": 7358,
      "ĠInformation": 7359,
      "ĠJames": 7360,
      "Ġconnectivity": 7361,
      "Ġconfirm": 7362,
      "Ġmindfulness": 7363,
      "Ġdisplayed": 7364,
      "Ġgradually": 7365,
      "Ġtiny": 7366,
      "Ġtouc": 7367,
      "ĠSEO": 7368,
      "umin": 7369,
      "ogs": 7370,
      "Ġresistance": 7371,
      "Ġteamwork": 7372,
      "Ġsalary": 7373,
      "Ġshowcase": 7374,
      "Ġ196": 7375,
      "Ġcontrols": 7376,
      "Ġnutritious": 7377,
      "Ġconsistency": 7378,
      "ĠAndroid": 7379,
      "liers": 7380,
      "Ġcommitted": 7381,
      "Ġwoods": 7382,
      "ĠSimilar": 7383,
      "Ġcouple": 7384,
      "Ġvocabulary": 7385,
      "ĠAugust": 7386,
      "Ġspoken": 7387,
      "aver": 7388,
      "person": 7389,
      "product": 7390,
      "rase": 7391,
      "sort": 7392,
      "Ġdownt": 7393,
      "Ġshades": 7394,
      "ĠDigital": 7395,
      "ĠGDP": 7396,
      "ĠNon": 7397,
      "efits": 7398,
      "Ġaccessibility": 7399,
      "Ġphysically": 7400,
      "Ġsections": 7401,
      "Ġinsect": 7402,
      "ĠUtilize": 7403,
      "That": 7404,
      "Ġcas": 7405,
      "Ġpour": 7406,
      "Ġbath": 7407,
      "Ġnet": 7408,
      "Ġintensity": 7409,
      "ĠEgypt": 7410,
      "ĠWi": 7411,
      "Ġcurious": 7412,
      "Ġfilter": 7413,
      "atsby": 7414,
      "Ġcalculates": 7415,
      "Ġlasting": 7416,
      "Ġexpressing": 7417,
      "ĠGPS": 7418,
      "Ġradio": 7419,
      "semble": 7420,
      "kyo": 7421,
      "29": 7422,
      "Read": 7423,
      "worth": 7424,
      "health": 7425,
      "Ġfest": 7426,
      "Ġdut": 7427,
      "Ġhiking": 7428,
      "Ġrough": 7429,
      "ĠLead": 7430,
      "ĠItaly": 7431,
      "Ġencount": 7432,
      "ustainable": 7433,
      "Ġvolcan": 7434,
      "Ġtalent": 7435,
      "While": 7436,
      "imensional": 7437,
      "ĠEncouraging": 7438,
      "Ġslogan": 7439,
      "Ġtap": 7440,
      "Ġaer": 7441,
      "onent": 7442,
      "Ġborder": 7443,
      "una": 7444,
      "Ġwhenever": 7445,
      "Ġupgra": 7446,
      "Ġscan": 7447,
      "Ġpeak": 7448,
      "Ġrecall": 7449,
      "Ġkeys": 7450,
      "Ġmainly": 7451,
      "Ġevenly": 7452,
      "Ġrevers": 7453,
      "Ġkeeps": 7454,
      "Ġharder": 7455,
      "Ġmotor": 7456,
      "ĠSpec": 7457,
      "Ġspecialized": 7458,
      "Ġportray": 7459,
      "Ġadjustments": 7460,
      "Ġattractions": 7461,
      "Ġcaptures": 7462,
      "isco": 7463,
      "ĠMedia": 7464,
      "Ġsynonym": 7465,
      "charge": 7466,
      "ĠRenewable": 7467,
      "Ġadministr": 7468,
      "Ġdevastating": 7469,
      "Ġsimultaneously": 7470,
      ")(": 7471,
      "Answer": 7472,
      "bow": 7473,
      "lier": 7474,
      "then": 7475,
      "itial": 7476,
      "Ġwine": 7477,
      "Ġmas": 7478,
      "Ġcanvas": 7479,
      "oding": 7480,
      "eren": 7481,
      "ĠGatsby": 7482,
      "Ġlaun": 7483,
      "Ġcaps": 7484,
      "Ġlesson": 7485,
      "Ġaffecting": 7486,
      "liance": 7487,
      "Ġannual": 7488,
      "Ġvitamin": 7489,
      "Ġschedules": 7490,
      "Ġdisplacement": 7491,
      "Ġunforgettable": 7492,
      "Now": 7493,
      "Pr": 7494,
      "predict": 7495,
      "Ġ%": 7496,
      "reens": 7497,
      "Ġbeef": 7498,
      "igue": 7499,
      "Ġevolve": 7500,
      "owned": 7501,
      "ĠJul": 7502,
      "Ġcomputational": 7503,
      "Ġflag": 7504,
      "roducing": 7505,
      "Ġearning": 7506,
      "Ġcompetitors": 7507,
      "Ġsnacks": 7508,
      "Ġcaptiv": 7509,
      "https": 7510,
      "Ġexecute": 7511,
      "ĠCustomers": 7512,
      "Brainstorm": 7513,
      "Pre": 7514,
      "Ġnouns": 7515,
      "ĠPM": 7516,
      "ĠExt": 7517,
      "Ġreserv": 7518,
      "ĠFresh": 7519,
      "anger": 7520,
      "ĠOct": 7521,
      "ĠLos": 7522,
      "ĠĠĠĠĠĠĠĠĠĠĠĠĠ": 7523,
      "ĠStr": 7524,
      "Ġflash": 7525,
      "Ġ+=": 7526,
      "ierarch": 7527,
      "ĠScient": 7528,
      "ĠTraining": 7529,
      "Ġdebate": 7530,
      "Ġproteins": 7531,
      "Ġgravitational": 7532,
      "ĠBuilding": 7533,
      "Ġframework": 7534,
      "ĠUnderstanding": 7535,
      "ĠFrancisco": 7536,
      "Ġrhythm": 7537,
      "oking": 7538,
      "icity": 7539,
      "Ġforced": 7540,
      "utter": 7541,
      "Ġvirt": 7542,
      "Ġresulted": 7543,
      "Ġhumanity": 7544,
      "Ġgenerates": 7545,
      "berry": 7546,
      "------------": 7547,
      "Ġconsideration": 7548,
      "Ġexpressions": 7549,
      "Ġtransforming": 7550,
      "Ġsaved": 7551,
      "Ġbackgrounds": 7552,
      "Ġdangers": 7553,
      "Comput": 7554,
      "32": 7555,
      "Bl": 7556,
      "Title": 7557,
      "data": 7558,
      "Ġtack": 7559,
      "Ġfab": 7560,
      "ĠBer": 7561,
      "ĠFire": 7562,
      "Ġtraveled": 7563,
      "Ġperm": 7564,
      "Ġinvention": 7565,
      "enger": 7566,
      "Ġcountless": 7567,
      "Ġdistant": 7568,
      "Ġreceives": 7569,
      "Ġreceiving": 7570,
      "Ġdiscussion": 7571,
      "Ġmaximize": 7572,
      "Ġviruses": 7573,
      "Ġpreviously": 7574,
      "Ġwelcome": 7575,
      "Ġsadness": 7576,
      "Ġmultiplication": 7577,
      "Ġdivisible": 7578,
      "ĠProviding": 7579,
      "Ġportfolio": 7580,
      "CO": 7581,
      "Day": 7582,
      "haps": 7583,
      "och": 7584,
      "Ġpink": 7585,
      "allow": 7586,
      "Ġlion": 7587,
      "olic": 7588,
      "ĠSov": 7589,
      "ositive": 7590,
      "ĠBetter": 7591,
      "Ġcheer": 7592,
      "Ġlandf": 7593,
      "Ġheads": 7594,
      "ĠSpace": 7595,
      "ĠInstall": 7596,
      "Ġexistence": 7597,
      "Ġutilizing": 7598,
      "ĠJapanese": 7599,
      "Ġpairs": 7600,
      "Ġmarked": 7601,
      "Ġstimul": 7602,
      "Ġdemocracy": 7603,
      "ĠJuly": 7604,
      "NLP": 7605,
      "box": 7606,
      "gments": 7607,
      "oin": 7608,
      "Ġpushing": 7609,
      "Ġfox": 7610,
      "Ġeld": 7611,
      "Ġhiring": 7612,
      "ĠCong": 7613,
      "Ġchlor": 7614,
      "rous": 7615,
      "ĠRest": 7616,
      "ober": 7617,
      "enses": 7618,
      "phony": 7619,
      "Ġskillet": 7620,
      "Ġavocado": 7621,
      "Ġpredicted": 7622,
      "Ġerosion": 7623,
      "Ġexclusive": 7624,
      "ependence": 7625,
      "Ġappeal": 7626,
      "Ġunderstood": 7627,
      "ĠWashington": 7628,
      "den": 7629,
      "Ġtired": 7630,
      "era": 7631,
      "Ġmac": 7632,
      "Ġhuge": 7633,
      "Ġlic": 7634,
      "eting": 7635,
      "olf": 7636,
      "Ġstack": 7637,
      "ĠSam": 7638,
      "ĠCare": 7639,
      "ĠEffective": 7640,
      "Ġweigh": 7641,
      "avirus": 7642,
      "Ġevolving": 7643,
      "Ġregards": 7644,
      "Ġcrim": 7645,
      "Ġoptimizing": 7646,
      "Ġminimizing": 7647,
      "Ġdiscussions": 7648,
      "Ġprecise": 7649,
      "Ġassignments": 7650,
      "Enter": 7651,
      "Ġdoub": 7652,
      "Ġvoting": 7653,
      "Ġappointments": 7654,
      "Ġneighborhood": 7655,
      "Ġenthus": 7656,
      "Go": 7657,
      "Ġawe": 7658,
      "atis": 7659,
      "Ġcoc": 7660,
      "Ġcott": 7661,
      "Ġblow": 7662,
      "Ġnecess": 7663,
      "Ġrank": 7664,
      "ĠStat": 7665,
      "Ġcharging": 7666,
      "Ġlock": 7667,
      "Ġinvestig": 7668,
      "Ġtargets": 7669,
      "Ġlimits": 7670,
      "scale": 7671,
      "Ġdietary": 7672,
      "Ġillnesses": 7673,
      "weight": 7674,
      "Ġcasting": 7675,
      "ĠDecision": 7676,
      "Ġcelebrate": 7677,
      "Ġobservations": 7678,
      "instein": 7679,
      "Note": 7680,
      "books": 7681,
      "from": 7682,
      "onavirus": 7683,
      "Ġson": 7684,
      "Ġlosing": 7685,
      "Ġconj": 7686,
      "Ġiteration": 7687,
      "ading": 7688,
      "Ġru": 7689,
      "roud": 7690,
      "Ġabund": 7691,
      "ĠRead": 7692,
      "ologies": 7693,
      "Ġacts": 7694,
      "Ġmostly": 7695,
      "Ġsubmit": 7696,
      "Ġauthority": 7697,
      "ĠPersonalization": 7698,
      "Ġsynonyms": 7699,
      "Ġbarriers": 7700,
      "Par": 7701,
      "count": 7702,
      "Ġtender": 7703,
      "Ġcere": 7704,
      "enn": 7705,
      "Ġfict": 7706,
      "lets": 7707,
      "Ġcomprom": 7708,
      "Ġadverb": 7709,
      "outhern": 7710,
      "Ġquot": 7711,
      "Ġforming": 7712,
      "Ġthanks": 7713,
      "Ġpasses": 7714,
      "Ġsupported": 7715,
      "Ġfocusing": 7716,
      "airy": 7717,
      "Ġwriter": 7718,
      "ĠEngland": 7719,
      "âĢĿ.": 7720,
      "Ġremotely": 7721,
      "Ġimagery": 7722,
      "Ġmechanics": 7723,
      "Ġagricultural": 7724,
      "Ġfraudulent": 7725,
      "Ġoccasion": 7726,
      "Ġrestrictions": 7727,
      "Ġtale": 7728,
      "itute": 7729,
      "Ġfle": 7730,
      "Ġluck": 7731,
      "Ġassemb": 7732,
      "arest": 7733,
      "ĠMac": 7734,
      "ĠHist": 7735,
      "apers": 7736,
      "Ġrelief": 7737,
      "Ġcorners": 7738,
      "Ġflows": 7739,
      "Ġrobotics": 7740,
      "Ġpolitics": 7741,
      "ĠPrepare": 7742,
      "Ġfunding": 7743,
      "trained": 7744,
      "Ġreligious": 7745,
      "Ġsummarizing": 7746,
      "ĠIndustrial": 7747,
      "coh": 7748,
      "length": 7749,
      "purpose": 7750,
      "Ġthesis": 7751,
      "att": 7752,
      "Ġca": 7753,
      "Ġtoy": 7754,
      "Ġnerv": 7755,
      "ĠSleep": 7756,
      "ĠFibonacci": 7757,
      "ĠRights": 7758,
      "Ġemit": 7759,
      "Ġcoherent": 7760,
      "Ġchest": 7761,
      "Ġlands": 7762,
      "Ġparallel": 7763,
      "Ġrecognized": 7764,
      "Ġfraction": 7765,
      "Ġtells": 7766,
      "--------------------------------": 7767,
      "Ġmistake": 7768,
      "ĠEnvironmental": 7769,
      "Ġrefriger": 7770,
      "500": 7771,
      "Of": 7772,
      "iable": 7773,
      "Ġtiss": 7774,
      "Ġbaby": 7775,
      "Ġdining": 7776,
      "Ġgest": 7777,
      "Ġoranges": 7778,
      "email": 7779,
      "Ġrivers": 7780,
      "Ġranging": 7781,
      "Ġspect": 7782,
      "ĠEle": 7783,
      "andom": 7784,
      "Ġherb": 7785,
      "Insert": 7786,
      "Ġaddresses": 7787,
      "apple": 7788,
      "Ġmeasured": 7789,
      "Ġreliance": 7790,
      "Ġmelted": 7791,
      "Ġanalyzed": 7792,
      "Ġputting": 7793,
      "Ġsmoothly": 7794,
      "Ġultimate": 7795,
      "ĠRepublic": 7796,
      "Ġfrozen": 7797,
      "sentence": 7798,
      "ĠSn": 7799,
      "Ġlever": 7800,
      "ptember": 7801,
      "Ġexposed": 7802,
      "Ġattach": 7803,
      "Ġelephant": 7804,
      "Ġbreed": 7805,
      "Ġdramat": 7806,
      "Ġspeeds": 7807,
      "ĠIncorpor": 7808,
      "Ġcrew": 7809,
      "know": 7810,
      "Ġfirew": 7811,
      "aughter": 7812,
      "orestation": 7813,
      "Ġfertil": 7814,
      "ĠMexico": 7815,
      "Ġdestroy": 7816,
      "Ġunsupervised": 7817,
      "ĠSoviet": 7818,
      "84": 7819,
      "Âł": 7820,
      "itan": 7821,
      "ician": 7822,
      "ppings": 7823,
      "Ġhaiku": 7824,
      "pril": 7825,
      "Ġboiling": 7826,
      "Ġprinted": 7827,
      "oxid": 7828,
      "ĠArctic": 7829,
      "Ġsymphony": 7830,
      "Ġrecommendation": 7831,
      "Ġbanks": 7832,
      "Ġmixing": 7833,
      "undred": 7834,
      "Ġtransformation": 7835,
      "Ġimagination": 7836,
      "Ġstruggles": 7837,
      "Ġmagnetic": 7838,
      "Ġthousands": 7839,
      "ĠAustralia": 7840,
      "Don": 7841,
      "Ġri": 7842,
      "anut": 7843,
      "ushed": 7844,
      "istry": 7845,
      "Ġship": 7846,
      "ĠEfficiency": 7847,
      "ĠLED": 7848,
      "Ġrelative": 7849,
      "Ġdeveloper": 7850,
      "Ġtransmission": 7851,
      "arming": 7852,
      "Ġelev": 7853,
      "Ġcalculations": 7854,
      "Ġera": 7855,
      "Ġconversations": 7856,
      "Ġpowered": 7857,
      "Ġpaths": 7858,
      "Ġsubtract": 7859,
      "Ġchaos": 7860,
      "anuary": 7861,
      "Ġagg": 7862,
      "Ġtheories": 7863,
      "Ġhills": 7864,
      "Ġalien": 7865,
      "Ġrou": 7866,
      "Ġseven": 7867,
      "ago": 7868,
      "ĠEd": 7869,
      "ĠMary": 7870,
      "ĠHouse": 7871,
      "ĠHaw": 7872,
      "Ġaccessing": 7873,
      "Ġbackup": 7874,
      "Ġentered": 7875,
      "ĠTokyo": 7876,
      "Ġhotel": 7877,
      "Ġsubscription": 7878,
      "Ġexecuted": 7879,
      "ĠDepending": 7880,
      "ĠReducing": 7881,
      "Ġpartnership": 7882,
      "iner": 7883,
      "atitude": 7884,
      "Ġcaught": 7885,
      "ros": 7886,
      "etry": 7887,
      "ĠCam": 7888,
      "ĠWould": 7889,
      "Ġquad": 7890,
      "ĠLight": 7891,
      "ĠLack": 7892,
      "enery": 7893,
      "Ġcovers": 7894,
      "Ġago": 7895,
      "Ġ195": 7896,
      "Ġoutputs": 7897,
      "Ġportable": 7898,
      "Ġreliability": 7899,
      "Ġbottles": 7900,
      "Ġverify": 7901,
      "Ġfulfilling": 7902,
      "Ġperception": 7903,
      "Outline": 7904,
      "ĠEmpire": 7905,
      "Ġclarity": 7906,
      "Ġathlet": 7907,
      "Ġcriminal": 7908,
      "34": 7909,
      "Best": 7910,
      "ON": 7911,
      "fu": 7912,
      "esity": 7913,
      "Ġproud": 7914,
      "Ġfits": 7915,
      "Ġdough": 7916,
      "ĠTurn": 7917,
      "ivered": 7918,
      "Ġspices": 7919,
      "ĠPar": 7920,
      "Ġintent": 7921,
      "ĠMost": 7922,
      "ĠForm": 7923,
      "indrome": 7924,
      "ressed": 7925,
      "Ġtraditions": 7926,
      "Ġworkload": 7927,
      "irement": 7928,
      "ildren": 7929,
      "Ġmedication": 7930,
      "Ġcalming": 7931,
      "Ġattitude": 7932,
      "Ġreference": 7933,
      "Ġencrypt": 7934,
      "ycling": 7935,
      "Ġsites": 7936,
      "Ġaccountability": 7937,
      "Ġexpresses": 7938,
      "Ġhunt": 7939,
      "Ġderiv": 7940,
      "Ġreveal": 7941,
      "Ġperpet": 7942,
      "MS": 7943,
      "ĠðŁ": 7944,
      "edy": 7945,
      "asant": 7946,
      "Ġhorm": 7947,
      "etary": 7948,
      "ili": 7949,
      "ĠAM": 7950,
      "Ġcomment": 7951,
      "ĠRub": 7952,
      "Ġherbs": 7953,
      "everance": 7954,
      "ometric": 7955,
      "autious": 7956,
      "Ġfilters": 7957,
      "Ġwindows": 7958,
      "Ġbrands": 7959,
      "Ġspreading": 7960,
      "Ġcollaborative": 7961,
      "Ġparticipation": 7962,
      "Ġwarning": 7963,
      "ĠBlue": 7964,
      "Ġmechanisms": 7965,
      "Ġholiday": 7966,
      "Ġexhaust": 7967,
      "________________": 7968,
      "Ġbroader": 7969,
      "Ġcandidates": 7970,
      "NNs": 7971,
      "Ġpursuit": 7972,
      "Ġsocieties": 7973,
      "Ġfulfillment": 7974,
      ")`": 7975,
      "Up": 7976,
      "car": 7977,
      "eah": 7978,
      "ference": 7979,
      "niv": 7980,
      "Ġvel": 7981,
      "Ġflying": 7982,
      "cere": 7983,
      "Ġnarrow": 7984,
      "Ġalert": 7985,
      "Ġleaks": 7986,
      "Ġspell": 7987,
      "endment": 7988,
      "ĠEvaluate": 7989,
      "ĠBack": 7990,
      "ĠLaw": 7991,
      "rying": 7992,
      "Ġevil": 7993,
      "Ġhumid": 7994,
      "Ġinstalled": 7995,
      "Ġcurrency": 7996,
      "Ġimmense": 7997,
      "Three": 7998,
      "ccoli": 7999,
      "Ġroads": 8000,
      "Ġdiagnose": 8001,
      "Arrange": 8002,
      "Ġreplacing": 8003,
      "ĠOffer": 8004,
      "Ġclustering": 8005,
      "HER": 8006,
      "Red": 8007,
      "Where": 8008,
      "hand": 8009,
      "ooth": 8010,
      "zil": 8011,
      "Ġcub": 8012,
      "Ġpull": 8013,
      "Ġbake": 8014,
      "Ġhierarch": 8015,
      "style": 8016,
      "Ġord": 8017,
      "Ġplate": 8018,
      "ĠMal": 8019,
      "ĠMet": 8020,
      "inder": 8021,
      "Ġclosing": 8022,
      "Ġoutlines": 8023,
      "ĠĠĠĠĠĠĠĠĠĠĠĠĠĠ": 8024,
      "Ġaccomp": 8025,
      "Ġcomplement": 8026,
      "Ġtempl": 8027,
      "Ġtravels": 8028,
      "Ġmindful": 8029,
      "Ġpaying": 8030,
      "Ġemerged": 8031,
      "Ġimagine": 8032,
      "fitting": 8033,
      "ĠPromote": 8034,
      "Ġprominent": 8035,
      "ĠOctober": 8036,
      "\"\"": 8037,
      "bies": 8038,
      "cher": 8039,
      "eem": 8040,
      "ha": 8041,
      "label": 8042,
      "such": 8043,
      "edge": 8044,
      "Ġharsh": 8045,
      "Ġnations": 8046,
      "sts": 8047,
      "Ġproactive": 8048,
      "ĠPrior": 8049,
      "roughts": 8050,
      "Ġvariations": 8051,
      "Ġpreference": 8052,
      "Ġadapted": 8053,
      "Ġbrowsing": 8054,
      "Ġsteam": 8055,
      "ĠGerman": 8056,
      "Ġsoup": 8057,
      "Ġantioxid": 8058,
      "Ġwisdom": 8059,
      "Ġlandmarks": 8060,
      "Ġcryst": 8061,
      "CD": 8062,
      "serv": 8063,
      "lete": 8064,
      "add": 8065,
      "rize": 8066,
      "ĠEth": 8067,
      "ĠEven": 8068,
      "ĠMix": 8069,
      "ĠRAM": 8070,
      "ĠUK": 8071,
      "Ġrelies": 8072,
      "Ġregulating": 8073,
      "Ġdesigner": 8074,
      "Ġexplains": 8075,
      "Ġlargely": 8076,
      "Ġhappens": 8077,
      "Ġoptimized": 8078,
      "Ġenhanced": 8079,
      "Ġlively": 8080,
      "Ġprincess": 8081,
      "Ġsubset": 8082,
      "Ġprosper": 8083,
      "Ġthermost": 8084,
      "consuming": 8085,
      "ĠSimilarly": 8086,
      "27": 8087,
      "44": 8088,
      "SA": 8089,
      "ault": 8090,
      "dimensional": 8091,
      "telling": 8092,
      "zing": 8093,
      "oned": 8094,
      "onential": 8095,
      "erted": 8096,
      "Ġdim": 8097,
      "Ġlon": 8098,
      "rame": 8099,
      "ĠSearch": 8100,
      "ĠPac": 8101,
      "ĠDiff": 8102,
      "apor": 8103,
      "Ġrecover": 8104,
      "Ġspecify": 8105,
      "Ġpartner": 8106,
      "Ġartists": 8107,
      "Ġ70": 8108,
      "Ġsuggested": 8109,
      "azed": 8110,
      "Ġupdating": 8111,
      "Ġgenet": 8112,
      "Ġhydr": 8113,
      "Ġstrain": 8114,
      "ields": 8115,
      "ĠRepeat": 8116,
      "Ġoutdoors": 8117,
      "Ġwonderful": 8118,
      "Ġafternoon": 8119,
      "ĠImplementing": 8120,
      "ĠReturn": 8121,
      "Ġreligion": 8122,
      "Ġfederal": 8123,
      "written": 8124,
      "Ġwitness": 8125,
      "Area": 8126,
      "Ġelegant": 8127,
      "Welcome": 8128,
      "long": 8129,
      "mp": 8130,
      "width": 8131,
      "ye": 8132,
      "ĢâĶ": 8133,
      "Ġax": 8134,
      "ĠTower": 8135,
      "ĠSqu": 8136,
      "ĠClass": 8137,
      "Ġimplies": 8138,
      "Ġupl": 8139,
      "ĠBecause": 8140,
      "ĠWell": 8141,
      "ĠGod": 8142,
      "Ġcustoms": 8143,
      "Ġcarried": 8144,
      "hess": 8145,
      "rencies": 8146,
      "Ġkeyboard": 8147,
      "Ġinsight": 8148,
      "Ġshowc": 8149,
      "Ġrepresentatives": 8150,
      "Ġcalculating": 8151,
      "Ġcrisp": 8152,
      "Ġintegral": 8153,
      "Ġlowest": 8154,
      "Ġcookies": 8155,
      "Ġrainfall": 8156,
      "Ġfluctu": 8157,
      "Ġclosest": 8158,
      "amsung": 8159,
      "Climate": 8160,
      "inoa": 8161,
      "Ġmutual": 8162,
      "aturally": 8163,
      "piece": 8164,
      "Do": 8165,
      "ET": 8166,
      "ta": 8167,
      "Ġcautious": 8168,
      "Ġpars": 8169,
      "Ġrecharge": 8170,
      "Ġnose": 8171,
      "Ġvine": 8172,
      "Ġcompounds": 8173,
      "ĠPop": 8174,
      "ĠEinstein": 8175,
      "Ġscr": 8176,
      "Ġpride": 8177,
      "Ġmodified": 8178,
      "phones": 8179,
      "Ġourselves": 8180,
      "Ġimpacted": 8181,
      "akespe": 8182,
      "Ġdelicate": 8183,
      "Ġreleasing": 8184,
      "Ġparks": 8185,
      "Ġrespectively": 8186,
      "Ġcircuit": 8187,
      "Ġgardens": 8188,
      "Ġlibraries": 8189,
      "Ġtomato": 8190,
      "Ġinhabit": 8191,
      "Ġdupl": 8192,
      "akespeare": 8193,
      "Cons": 8194,
      "Disc": 8195,
      "lide": 8196,
      "rus": 8197,
      "ini": 8198,
      "Ġlung": 8199,
      "Ġproceed": 8200,
      "ĠApril": 8201,
      "Ġcompares": 8202,
      "Ġweap": 8203,
      "Ġinterior": 8204,
      "Ġmoderate": 8205,
      "Ġvisited": 8206,
      "Ġsurfaces": 8207,
      "Ġdistances": 8208,
      "ockchain": 8209,
      "Ġdelivered": 8210,
      "Ġhappening": 8211,
      "ĠAltern": 8212,
      "ĠSeptember": 8213,
      "Ġpriority": 8214,
      "Ġvacu": 8215,
      "Ġweekend": 8216,
      "Ġdomestic": 8217,
      "Ġmechanism": 8218,
      "ĠParty": 8219,
      "Ġacceleration": 8220,
      "Ġdemocratic": 8221,
      "Ġexcessive": 8222,
      "ĠExperience": 8223,
      "Ġmultiplying": 8224,
      "Ġrhyme": 8225,
      "ĠWindows": 8226,
      "Ġnestled": 8227,
      "76": 8228,
      "bur": 8229,
      "ydr": 8230,
      "Ġce": 8231,
      "Ġpil": 8232,
      "Ġpig": 8233,
      "org": 8234,
      "Ġalthough": 8235,
      "Ġspring": 8236,
      "plit": 8237,
      "Ġscope": 8238,
      "earrange": 8239,
      "Ġprocessor": 8240,
      "pring": 8241,
      "ĠThanks": 8242,
      "Ġpurchased": 8243,
      "brid": 8244,
      "Ġevaluated": 8245,
      "ĠQue": 8246,
      "Ġgained": 8247,
      "Ġresponding": 8248,
      "Ġhighlighting": 8249,
      "ĠVisual": 8250,
      "Apple": 8251,
      "Ġreinforcement": 8252,
      "Ġastronaut": 8253,
      "Ġtutorial": 8254,
      "Ġsteady": 8255,
      "Ġlaunched": 8256,
      "Ġfictional": 8257,
      "Ġcel": 8258,
      "Ġtoppings": 8259,
      "ica": 8260,
      "Ġlad": 8261,
      "ilant": 8262,
      "idation": 8263,
      "ĠCa": 8264,
      "ĠCed": 8265,
      "acerb": 8266,
      "ĠMind": 8267,
      "ĠBC": 8268,
      "ĠHaving": 8269,
      "Ġwearing": 8270,
      "Ġclient": 8271,
      "Ġjew": 8272,
      "ĠLine": 8273,
      "ĠLast": 8274,
      "Ġroasted": 8275,
      "ishment": 8276,
      "Ġgrad": 8277,
      "Ġminced": 8278,
      "Ġmeasuring": 8279,
      "Ġconstra": 8280,
      "itudes": 8281,
      "Ġobservation": 8282,
      "Ġcalling": 8283,
      "Ġsmoothie": 8284,
      "Ġpromptly": 8285,
      "Ġcharts": 8286,
      "Ġimperative": 8287,
      "Life": 8288,
      "True": 8289,
      "made": 8290,
      "Ġsac": 8291,
      "oral": 8292,
      "Ġbic": 8293,
      "Ġdie": 8294,
      "omas": 8295,
      "atell": 8296,
      "amily": 8297,
      "ĠSelf": 8298,
      "orthern": 8299,
      "ĠPort": 8300,
      "angular": 8301,
      "Ġwasn": 8302,
      "Ġcustomized": 8303,
      "Ġclassifier": 8304,
      "Ġapproached": 8305,
      "Ġmystery": 8306,
      "Ġownership": 8307,
      "Ġseeing": 8308,
      "ĠUnlike": 8309,
      "lusions": 8310,
      "Ġcenters": 8311,
      "melet": 8312,
      "Ġaccountable": 8313,
      "ĠShare": 8314,
      "Ġsnipp": 8315,
      "Ġcourt": 8316,
      "Ġsafely": 8317,
      "Ġfrustr": 8318,
      "ĠGrand": 8319,
      "Ġflooding": 8320,
      "Ġhyperpar": 8321,
      "HERE": 8322,
      "hors": 8323,
      "Ġfake": 8324,
      "Ġnaturally": 8325,
      "Ġorbit": 8326,
      "ayer": 8327,
      "ĠIoT": 8328,
      "ablish": 8329,
      "Ġexacerb": 8330,
      "ĠSchool": 8331,
      "ĠFurthermore": 8332,
      "ĠRun": 8333,
      "ĠOb": 8334,
      "ĠNight": 8335,
      "Ġ35": 8336,
      "ĠStar": 8337,
      "Ġraised": 8338,
      "ventually": 8339,
      "Ġautomating": 8340,
      "Ġcontributes": 8341,
      "Ġarrive": 8342,
      "Ġlegis": 8343,
      "Ġrecycled": 8344,
      "Char": 8345,
      "Ġuncover": 8346,
      "Ġstorms": 8347,
      "Ġregarding": 8348,
      "Ġcompanions": 8349,
      "cerer": 8350,
      "90": 8351,
      "ES": 8352,
      "`:": 8353,
      "boh": 8354,
      "source": 8355,
      "erly": 8356,
      "atility": 8357,
      "ĠSamsung": 8358,
      "ustle": 8359,
      "Ġincon": 8360,
      "Ġintake": 8361,
      "ĠEast": 8362,
      "apes": 8363,
      "ĠNa": 8364,
      "Ġaccum": 8365,
      "Ġfunny": 8366,
      "othermal": 8367,
      "Ġelected": 8368,
      "Ġdetermining": 8369,
      "Ġguarant": 8370,
      "ĠAllow": 8371,
      "Ġinfluential": 8372,
      "Ġobesity": 8373,
      "Ġorigin": 8374,
      "Ġpriorities": 8375,
      "ĠTrain": 8376,
      "ceries": 8377,
      "ĠIncrease": 8378,
      "ĠTransportation": 8379,
      "Ġwaters": 8380,
      "ĠBrazil": 8381,
      "Ġdeclarative": 8382,
      "Ġlandfills": 8383,
      "bohydr": 8384,
      "isure": 8385,
      "Ġwire": 8386,
      "Ġdroughts": 8387,
      "Ġstone": 8388,
      "izers": 8389,
      "Ġshares": 8390,
      "ĠFlex": 8391,
      "Ġtrail": 8392,
      "Ġ23": 8393,
      "ĠJanuary": 8394,
      "Ġguard": 8395,
      "Ġdifficulties": 8396,
      "ĠShakespeare": 8397,
      "Ġsimilarity": 8398,
      "Ġrecorded": 8399,
      "ĠBattle": 8400,
      "Ġmolecule": 8401,
      "bullying": 8402,
      "']": 8403,
      "42": 8404,
      "IN": 8405,
      "bing": 8406,
      "len": 8407,
      "lined": 8408,
      "Ġske": 8409,
      "itative": 8410,
      "rost": 8411,
      "omy": 8412,
      "imedia": 8413,
      "Ġcond": 8414,
      "unt": 8415,
      "arts": 8416,
      "Ġmanagers": 8417,
      "Ġnotifications": 8418,
      "Ġscent": 8419,
      "Ġrays": 8420,
      "Ġgrade": 8421,
      "ĠAdapt": 8422,
      "Ġinflation": 8423,
      "Ġrises": 8424,
      "Ġcombining": 8425,
      "Ġwalks": 8426,
      "Ġsinging": 8427,
      "Ġremainder": 8428,
      "Ġfamiliar": 8429,
      "Ġfatigue": 8430,
      "Ġratings": 8431,
      "Ġsocietal": 8432,
      "ĠBenefits": 8433,
      "Ġsessions": 8434,
      "iosity": 8435,
      "Ġtitles": 8436,
      "During": 8437,
      "gien": 8438,
      "night": 8439,
      "paced": 8440,
      "renewable": 8441,
      "itar": 8442,
      "ishes": 8443,
      "Ġinher": 8444,
      "using": 8445,
      "ĠTem": 8446,
      "iest": 8447,
      "ĠCour": 8448,
      "Ġseat": 8449,
      "ĠPass": 8450,
      "ĠNob": 8451,
      "Ġoverl": 8452,
      "Ġpreparation": 8453,
      "Ġshell": 8454,
      "Ġsolved": 8455,
      "ĠKey": 8456,
      "Ġcoral": 8457,
      "Ġprofits": 8458,
      "ompass": 8459,
      "Ġpresenting": 8460,
      "Ġearlier": 8461,
      "ĠUSA": 8462,
      "onomic": 8463,
      "Ġfrustration": 8464,
      "Ġfighting": 8465,
      "Ġdoll": 8466,
      "Ġrouter": 8467,
      "oved": 8468,
      "pan": 8469,
      "Ġsqrt": 8470,
      "erge": 8471,
      "atical": 8472,
      "Ġfell": 8473,
      "Ġreef": 8474,
      "Ġenerg": 8475,
      "ĠCalculate": 8476,
      "Ġshore": 8477,
      "Ġjar": 8478,
      "ĠLog": 8479,
      "ĠIns": 8480,
      "Ġpatience": 8481,
      "Ġgrab": 8482,
      "Ġchef": 8483,
      "ĠHead": 8484,
      "Ġencounter": 8485,
      "Ġfacilities": 8486,
      "Ġdirections": 8487,
      "Third": 8488,
      "Ġremoved": 8489,
      "ugged": 8490,
      "ĠOrganize": 8491,
      "Ġmalicious": 8492,
      "equate": 8493,
      "ithmetic": 8494,
      "Ġcompletion": 8495,
      "Ġforgot": 8496,
      "Ġderivative": 8497,
      "Rearrange": 8498,
      "pack": 8499,
      "rum": 8500,
      "Ġtoss": 8501,
      "Ġduration": 8502,
      "icine": 8503,
      "Ġiterate": 8504,
      "emy": 8505,
      "opol": 8506,
      "ache": 8507,
      "Ġimpression": 8508,
      "Ġinters": 8509,
      "ander": 8510,
      "Ġtrading": 8511,
      "Ġretirement": 8512,
      "Ġrequiring": 8513,
      "Ġconclusions": 8514,
      "Ġdiets": 8515,
      "ĠConclusion": 8516,
      "Ġrecipes": 8517,
      "Ġnutrient": 8518,
      "Ġsatisfying": 8519,
      "ĠCreating": 8520,
      "Ġwonders": 8521,
      "Ġcarpooling": 8522,
      "Both": 8523,
      "Furthermore": 8524,
      "More": 8525,
      "OR": 8526,
      "Soc": 8527,
      "dy": 8528,
      "log": 8529,
      "Ġsights": 8530,
      "Ġpod": 8531,
      "Ġtoken": 8532,
      "olves": 8533,
      "Ġproof": 8534,
      "Ġrig": 8535,
      "ĠOper": 8536,
      "Ġbloom": 8537,
      "heses": 8538,
      "Ġcharged": 8539,
      "Ġinstances": 8540,
      "Ġpossibility": 8541,
      "Ġstrengthen": 8542,
      "Ġrecipient": 8543,
      "###": 8544,
      "Ġreplaced": 8545,
      "ĠPersonalized": 8546,
      "Ġcelebrated": 8547,
      "Ġphilosophy": 8548,
      "Ġmuseum": 8549,
      "Ġbottle": 8550,
      "Ġrefreshing": 8551,
      "Ġpivot": 8552,
      "ĠCedric": 8553,
      "Ġtens": 8554,
      "Ġaug": 8555,
      "ocation": 8556,
      "achel": 8557,
      "ĠPat": 8558,
      "Ġshower": 8559,
      "Ġscores": 8560,
      "Ġscreens": 8561,
      "Ġdecades": 8562,
      "ĠStore": 8563,
      "wareness": 8564,
      "Ġexplo": 8565,
      "ĠHeat": 8566,
      "Ġextended": 8567,
      "Ġswap": 8568,
      "ĠEmail": 8569,
      "Ġsubjective": 8570,
      "ĠSea": 8571,
      "afood": 8572,
      "ĠPrime": 8573,
      "Ġvalidation": 8574,
      "Ġinspiring": 8575,
      "Ġjoke": 8576,
      "Ġmammal": 8577,
      "itialize": 8578,
      "cohol": 8579,
      "Fe": 8580,
      "Mod": 8581,
      "Next": 8582,
      "mond": 8583,
      "Ġaest": 8584,
      "ref": 8585,
      "Ġcab": 8586,
      "itarian": 8587,
      "Ġfought": 8588,
      "Ġren": 8589,
      "Ġgun": 8590,
      "irp": 8591,
      "seen": 8592,
      "ĠMobile": 8593,
      "Ġacknow": 8594,
      "Ġsyll": 8595,
      "Ġscat": 8596,
      "Ġassum": 8597,
      "Ġagent": 8598,
      "ĠEnter": 8599,
      "Ġrestore": 8600,
      "Ġconsuming": 8601,
      "forward": 8602,
      "Ġlowercase": 8603,
      "Ġdestinations": 8604,
      "Ġdecreases": 8605,
      "Ġcategorize": 8606,
      "Ġencouraged": 8607,
      "ĠCommon": 8608,
      "Ġhorror": 8609,
      "spec": 8610,
      "Ġbelongs": 8611,
      "Ġhonor": 8612,
      "Ġpassionate": 8613,
      "Ġinstallation": 8614,
      "Ġcoordinates": 8615,
      "Ġshadows": 8616,
      "ĠEstablish": 8617,
      "ĠBayes": 8618,
      "Tra": 8619,
      "jud": 8620,
      "pass": 8621,
      "ran": 8622,
      "Ġtire": 8623,
      "Ġsan": 8624,
      "Ġomelet": 8625,
      "Ġgear": 8626,
      "Ġbee": 8627,
      "irth": 8628,
      "otos": 8629,
      "abil": 8630,
      "tery": 8631,
      "plane": 8632,
      "Ġsole": 8633,
      "Ġinviting": 8634,
      "ĠStep": 8635,
      "Ġsoccer": 8636,
      "Ġsupportive": 8637,
      "Ġconfig": 8638,
      "Ġlogin": 8639,
      "Ġpainted": 8640,
      "Ġvegetarian": 8641,
      "ĠShow": 8642,
      "ependent": 8643,
      "Ġanswering": 8644,
      "Ġbananas": 8645,
      "Ġcredibility": 8646,
      "Ġgrammatical": 8647,
      "Ġinfection": 8648,
      "Ġrewarding": 8649,
      "Ġderived": 8650,
      "Ġsnippet": 8651,
      "Date": 8652,
      "Sm": 8653,
      "bal": 8654,
      "Ġtab": 8655,
      "alities": 8656,
      "iciency": 8657,
      "Ġlake": 8658,
      "otics": 8659,
      "elled": 8660,
      "Ġsuited": 8661,
      "ĠCount": 8662,
      "ĠCats": 8663,
      "Ġinclusion": 8664,
      "ptions": 8665,
      "ĠForest": 8666,
      "ificent": 8667,
      "Ġhash": 8668,
      "ĠGalaxy": 8669,
      "Ġinterrupt": 8670,
      "Ġartistic": 8671,
      "Ġmetab": 8672,
      "Ġbuzz": 8673,
      "Ġcorn": 8674,
      "Ġpassengers": 8675,
      "Ġbene": 8676,
      "Ġloans": 8677,
      "ixel": 8678,
      "ĠThomas": 8679,
      "Ġphotograph": 8680,
      "Ġdetecting": 8681,
      "Ġindicators": 8682,
      "Ġshaped": 8683,
      "Ġconducted": 8684,
      "Ġlaptops": 8685,
      "Ġmisunderstand": 8686,
      "optional": 8687,
      "Ġmalware": 8688,
      "---|": 8689,
      "Ġluxury": 8690,
      "Ġantioxidants": 8691,
      "ĠPacific": 8692,
      "26": 8693,
      "39": 8694,
      "Every": 8695,
      "front": 8696,
      "Ġcave": 8697,
      "Ġdess": 8698,
      "Ġrej": 8699,
      "ĠABC": 8700,
      "Ġwhisp": 8701,
      "Ġcloth": 8702,
      "ĠLike": 8703,
      "Ġoutfit": 8704,
      "Ġrecurs": 8705,
      "Ġregist": 8706,
      "Ġadvis": 8707,
      "Ġattending": 8708,
      "Ġminor": 8709,
      "ports": 8710,
      "Ġaudiences": 8711,
      "Ġinspiration": 8712,
      "Ġtowering": 8713,
      "Ġagreement": 8714,
      "Ġrabbit": 8715,
      "Ġtactics": 8716,
      "Ġcasual": 8717,
      "erencing": 8718,
      "37": 8719,
      "Ultimately": 8720,
      "mod": 8721,
      "vance": 8722,
      "Ġsway": 8723,
      "ĠTreat": 8724,
      "ĠCent": 8725,
      "Ġleisure": 8726,
      "ocity": 8727,
      "Ġplates": 8728,
      "ĠFit": 8729,
      "Ġwash": 8730,
      "aped": 8731,
      "Ġ36": 8732,
      "ĠJob": 8733,
      "Ġtexts": 8734,
      "Ġmonarch": 8735,
      "Ġfiltering": 8736,
      "Ġshowed": 8737,
      "Ġgrilled": 8738,
      "ĠAlgorith": 8739,
      "Ġtablets": 8740,
      "Ġengineers": 8741,
      "Ġfreshly": 8742,
      "Ġillum": 8743,
      "Ġspeakers": 8744,
      "Ġenabled": 8745,
      "Ġreputable": 8746,
      "ĠVisit": 8747,
      "Sincerely": 8748,
      "gramming": 8749,
      "Ġfemale": 8750,
      "well": 8751,
      "what": 8752,
      "Ġaids": 8753,
      "ita": 8754,
      "Ġfing": 8755,
      "Ġbones": 8756,
      "Ġhole": 8757,
      "uls": 8758,
      "ulpt": 8759,
      "erent": 8760,
      "Ġhack": 8761,
      "Ġkids": 8762,
      "Ġfears": 8763,
      "ĠLong": 8764,
      "Ġsculpt": 8765,
      "ĠNA": 8766,
      "Ġdecentral": 8767,
      "ensus": 8768,
      "Ġsimile": 8769,
      "ĠYog": 8770,
      "ĠAdvent": 8771,
      "Ġpersonalize": 8772,
      "Ġdrinking": 8773,
      "Ġemployers": 8774,
      "Ġbiased": 8775,
      "ĠWhite": 8776,
      "Ġnegatively": 8777,
      "Ġexceed": 8778,
      "Ġrespectful": 8779,
      "Ġfootball": 8780,
      "Ġbelonging": 8781,
      "Ġinjury": 8782,
      "Ġinjuries": 8783,
      "Ġhospital": 8784,
      "Ġexplicitly": 8785,
      "Ġinsects": 8786,
      "giene": 8787,
      "SQL": 8788,
      "Use": 8789,
      "bed": 8790,
      "wing": 8791,
      "rete": 8792,
      "Ġhundred": 8793,
      "Ġbeings": 8794,
      "igr": 8795,
      "estion": 8796,
      "Ġshred": 8797,
      "ague": 8798,
      "ĠBas": 8799,
      "Ġexponential": 8800,
      "Ġsett": 8801,
      "Ġcoal": 8802,
      "Ġcuriosity": 8803,
      "Ġdistingu": 8804,
      "Ġmethane": 8805,
      "Ġlanding": 8806,
      "ĠThings": 8807,
      "ĠAmericans": 8808,
      "Ġviewers": 8809,
      "Ġstepped": 8810,
      "ĠImprove": 8811,
      "Ġwooden": 8812,
      "processing": 8813,
      "Ġicon": 8814,
      "color": 8815,
      "ĠFinancial": 8816,
      "Ġsuffering": 8817,
      "Ġpreprocessing": 8818,
      "ĠLimited": 8819,
      "Ġhydrated": 8820,
      "36": 8821,
      "kay": 8822,
      "oard": 8823,
      "tune": 8824,
      "Ġtags": 8825,
      "Ġpump": 8826,
      "Ġmort": 8827,
      "Ġsug": 8828,
      "emb": 8829,
      "Ġchips": 8830,
      "ffy": 8831,
      "ĠEgg": 8832,
      "Ġaband": 8833,
      "ĠMil": 8834,
      "Ġcontam": 8835,
      "ĠRandom": 8836,
      "Ġcloves": 8837,
      "Ġdescending": 8838,
      "Ġacting": 8839,
      "Ġadvers": 8840,
      "Ġfinances": 8841,
      "ĠHey": 8842,
      "Ġtemporary": 8843,
      "Ġsale": 8844,
      "ropriate": 8845,
      "Ġdemographics": 8846,
      "ĠImport": 8847,
      "Ġnewsp": 8848,
      "Ġpressing": 8849,
      "Ġlifetime": 8850,
      "ĠColor": 8851,
      "Ġassignment": 8852,
      "Ġaccepted": 8853,
      "Ġirre": 8854,
      "Ġdrugs": 8855,
      "Technology": 8856,
      "Ġnucleus": 8857,
      "Ġhesitate": 8858,
      "Ġvinegar": 8859,
      "Aut": 8860,
      "bird": 8861,
      "catching": 8862,
      "tons": 8863,
      "yram": 8864,
      "Ġwizard": 8865,
      "eters": 8866,
      "Ġgod": 8867,
      "ĠCub": 8868,
      "ĠCentral": 8869,
      "ĠBill": 8870,
      "ĠDist": 8871,
      "Ġcarbohydr": 8872,
      "Ġregulation": 8873,
      "Ġcurve": 8874,
      "Ġknows": 8875,
      "Ġinsulation": 8876,
      "Ġbeloved": 8877,
      "ĠExce": 8878,
      "Ġbroth": 8879,
      "Ġdemands": 8880,
      "Ġparticipating": 8881,
      "Ġrelaxing": 8882,
      "ĠPriv": 8883,
      "Ġexecution": 8884,
      "ĠTransform": 8885,
      "Ġincentiv": 8886,
      "ĠExplore": 8887,
      "Ġallocate": 8888,
      "Ġisolation": 8889,
      "Ġsuspicious": 8890,
      "Ġelderly": 8891,
      "><": 8892,
      "IV": 8893,
      "changing": 8894,
      "ĠTur": 8895,
      "Ġstatic": 8896,
      "iform": 8897,
      "Ġhex": 8898,
      "Ġvow": 8899,
      "esteem": 8900,
      "Ġsear": 8901,
      "Ġreson": 8902,
      "ĠDay": 8903,
      "Ġjoint": 8904,
      "Ġdesignated": 8905,
      "Ġenters": 8906,
      "Ġcoronavirus": 8907,
      "Ġgratitude": 8908,
      "Ġquantities": 8909,
      "Ġemerging": 8910,
      "Ġfarmer": 8911,
      "Ġdiagnoses": 8912,
      "affe": 8913,
      "Ġgroceries": 8914,
      "Ġphenomena": 8915,
      "Ġblanket": 8916,
      "Ġtroubles": 8917,
      "ĠDemoc": 8918,
      "Ġgradient": 8919,
      "AC": 8920,
      "Each": 8921,
      "Object": 8922,
      "ael": 8923,
      "test": 8924,
      "Ġ__": 8925,
      "Ġtort": 8926,
      "hero": 8927,
      "Ġtoys": 8928,
      "Ġreform": 8929,
      "Ġreuse": 8930,
      "Ġwhisk": 8931,
      "ĠCut": 8932,
      "aceted": 8933,
      "ĠBu": 8934,
      "ĠBake": 8935,
      "Ġclicking": 8936,
      "Ġfeather": 8937,
      "Ġroof": 8938,
      "Ġtrial": 8939,
      "Ġgranted": 8940,
      "Ġfeeding": 8941,
      "Ġtravelers": 8942,
      "ĠWhich": 8943,
      "Ġconsiderations": 8944,
      "Ġreported": 8945,
      "Ġmagnificent": 8946,
      "Ġutilize": 8947,
      "ĠTwo": 8948,
      "Ġharness": 8949,
      "Ġhobby": 8950,
      "Ġtherapy": 8951,
      "Ġreversed": 8952,
      "Ġrefrigerator": 8953,
      "85": 8954,
      "pace": 8955,
      "Ġsatell": 8956,
      "enuse": 8957,
      "Ġped": 8958,
      "Ġpitch": 8959,
      "Ġdirt": 8960,
      "Ġgap": 8961,
      "ola": 8962,
      "Ġconsole": 8963,
      "through": 8964,
      "arted": 8965,
      "ĠMove": 8966,
      "ĠBoo": 8967,
      "ĠBring": 8968,
      "Ġcontem": 8969,
      "ĠWestern": 8970,
      "ĠFocus": 8971,
      "Ġwheel": 8972,
      "ĠObject": 8973,
      "Ġdecade": 8974,
      "Ġdoors": 8975,
      "Ġknight": 8976,
      "Ġraising": 8977,
      "egative": 8978,
      "Ġcontinent": 8979,
      "Ġcontinually": 8980,
      "Ġstorytelling": 8981,
      "Ġflowing": 8982,
      "Ġnewslet": 8983,
      "Ġperseverance": 8984,
      "Ġexcel": 8985,
      "ĠAddress": 8986,
      "ĠSuper": 8987,
      "Ġgarn": 8988,
      "Ġcrack": 8989,
      "Ġsubstances": 8990,
      "Ġburden": 8991,
      "electric": 8992,
      "Ġexactly": 8993,
      "Ġteenagers": 8994,
      "Ġnitrogen": 8995,
      "Ġhurricanes": 8996,
      "Ġencountered": 8997,
      "ĠStrateg": 8998,
      "Che": 8999,
      "rat": 9000,
      "athetic": 9001,
      "Ġchess": 9002,
      "Ġwra": 9003,
      "Ġalcohol": 9004,
      "Ġ1000": 9005,
      "ĠMaking": 9006,
      "ĠBank": 9007,
      "ruits": 9008,
      "Ġunpredict": 9009,
      "Ġarithmetic": 9010,
      "Ġnotice": 9011,
      "ĠNet": 9012,
      "Ġprey": 9013,
      "Ġaccessories": 9014,
      "Ġbreaches": 9015,
      "proof": 9016,
      "ĠAlways": 9017,
      "ĠSpain": 9018,
      "fortun": 9019,
      "Ġplanting": 9020,
      "append": 9021,
      "Ġexplored": 9022,
      "Ġmargin": 9023,
      "ungle": 9024,
      "Ġballoon": 9025,
      "Ġliterary": 9026,
      "Ġattempts": 9027,
      "Ġviolence": 9028,
      "ĠMaintain": 9029,
      "Ġinterpreted": 9030,
      "Ġfabric": 9031,
      "ĢâĶĢâĶ": 9032,
      "Ġinhabitants": 9033,
      "dig": 9034,
      "mother": 9035,
      "Ġaqu": 9036,
      "Ġborrow": 9037,
      "ellect": 9038,
      "Ġneck": 9039,
      "ĠPen": 9040,
      "ipher": 9041,
      "ĠLar": 9042,
      "Ġouter": 9043,
      "Ġartwork": 9044,
      "riting": 9045,
      "Ġdistancing": 9046,
      "Ġmultimedia": 9047,
      "Ġdetermines": 9048,
      "Ġdefeat": 9049,
      "Ġchildhood": 9050,
      "Ġsuggestion": 9051,
      "Ġaccounting": 9052,
[...]
